{
  "version": "1.0",
  "truncation": null,
  "padding": null,
  "added_tokens": [
    {
      "id": 0,
      "content": "<|begin_of_sequence|>",
      "single_word": false,
      "lstrip": false,
      "rstrip": false,
      "normalized": false,
      "special": true
    },
    {
      "id": 1,
      "content": "<|end_of_sequence|>",
      "single_word": false,
      "lstrip": false,
      "rstrip": false,
      "normalized": false,
      "special": true
    },
    {
      "id": 2,
      "content": "<|pad|>",
      "single_word": false,
      "lstrip": false,
      "rstrip": false,
      "normalized": false,
      "special": true
    },
    {
      "id": 3,
      "content": "<|im_start|>",
      "single_word": false,
      "lstrip": false,
      "rstrip": false,
      "normalized": false,
      "special": true
    },
    {
      "id": 4,
      "content": "<|im_end|>",
      "single_word": false,
      "lstrip": false,
      "rstrip": false,
      "normalized": false,
      "special": true
    },
    {
      "id": 5,
      "content": "<|semantic|>",
      "single_word": false,
      "lstrip": false,
      "rstrip": false,
      "normalized": false,
      "special": true
    },
    {
      "id": 6,
      "content": "<|mel|>",
      "single_word": false,
      "lstrip": false,
      "rstrip": false,
      "normalized": false,
      "special": true
    },
    {
      "id": 7,
      "content": "<|reserve_0|>",
      "single_word": false,
      "lstrip": false,
      "rstrip": false,
      "normalized": false,
      "special": true
    },
    {
      "id": 8,
      "content": "<|reserve_1|>",
      "single_word": false,
      "lstrip": false,
      "rstrip": false,
      "normalized": false,
      "special": true
    }
  ],
  "normalizer": null,
  "pre_tokenizer": {
    "type": "Sequence",
    "pretokenizers": [
      {
        "type": "Digits",
        "individual_digits": true
      },
      {
        "type": "Punctuation",
        "behavior": "Isolated"
      },
      {
        "type": "ByteLevel",
        "add_prefix_space": false,
        "trim_offsets": true,
        "use_regex": true
      }
    ]
  },
  "post_processor": {
    "type": "ByteLevel",
    "add_prefix_space": true,
    "trim_offsets": false,
    "use_regex": true
  },
  "decoder": {
    "type": "ByteLevel",
    "add_prefix_space": true,
    "trim_offsets": true,
    "use_regex": true
  },
  "model": {
    "type": "BPE",
    "dropout": null,
    "unk_token": null,
    "continuing_subword_prefix": null,
    "end_of_word_suffix": null,
    "fuse_unk": false,
    "byte_fallback": false,
    "ignore_merges": false,
    "vocab": {
      "<|begin_of_sequence|>": 0,
      "<|end_of_sequence|>": 1,
      "<|pad|>": 2,
      "<|im_start|>": 3,
      "<|im_end|>": 4,
      "<|semantic|>": 5,
      "<|mel|>": 6,
      "<|phoneme_start|>": 7,
      "<|phoneme_end|>": 8,
      "!": 9,
      "\"": 10,
      "#": 11,
      "$": 12,
      "%": 13,
      "&": 14,
      "'": 15,
      "(": 16,
      ")": 17,
      "*": 18,
      "+": 19,
      ",": 20,
      "-": 21,
      ".": 22,
      "/": 23,
      "0": 24,
      "1": 25,
      "2": 26,
      "3": 27,
      "4": 28,
      "5": 29,
      "6": 30,
      "7": 31,
      "8": 32,
      "9": 33,
      ":": 34,
      ";": 35,
      "<": 36,
      "=": 37,
      ">": 38,
      "?": 39,
      "@": 40,
      "A": 41,
      "B": 42,
      "C": 43,
      "D": 44,
      "E": 45,
      "F": 46,
      "G": 47,
      "H": 48,
      "I": 49,
      "J": 50,
      "K": 51,
      "L": 52,
      "M": 53,
      "N": 54,
      "O": 55,
      "P": 56,
      "Q": 57,
      "R": 58,
      "S": 59,
      "T": 60,
      "U": 61,
      "V": 62,
      "W": 63,
      "X": 64,
      "Y": 65,
      "Z": 66,
      "[": 67,
      "\\": 68,
      "]": 69,
      "^": 70,
      "_": 71,
      "`": 72,
      "a": 73,
      "b": 74,
      "c": 75,
      "d": 76,
      "e": 77,
      "f": 78,
      "g": 79,
      "h": 80,
      "i": 81,
      "j": 82,
      "k": 83,
      "l": 84,
      "m": 85,
      "n": 86,
      "o": 87,
      "p": 88,
      "q": 89,
      "r": 90,
      "s": 91,
      "t": 92,
      "u": 93,
      "v": 94,
      "w": 95,
      "x": 96,
      "y": 97,
      "z": 98,
      "{": 99,
      "|": 100,
      "}": 101,
      "~": 102,
      "¡": 103,
      "¢": 104,
      "£": 105,
      "¤": 106,
      "¥": 107,
      "¦": 108,
      "§": 109,
      "¨": 110,
      "©": 111,
      "ª": 112,
      "«": 113,
      "¬": 114,
      "®": 115,
      "¯": 116,
      "°": 117,
      "±": 118,
      "²": 119,
      "³": 120,
      "´": 121,
      "µ": 122,
      "¶": 123,
      "·": 124,
      "¸": 125,
      "¹": 126,
      "º": 127,
      "»": 128,
      "¼": 129,
      "½": 130,
      "¾": 131,
      "¿": 132,
      "À": 133,
      "Á": 134,
      "Â": 135,
      "Ã": 136,
      "Ä": 137,
      "Å": 138,
      "Æ": 139,
      "Ç": 140,
      "È": 141,
      "É": 142,
      "Ê": 143,
      "Ë": 144,
      "Ì": 145,
      "Í": 146,
      "Î": 147,
      "Ï": 148,
      "Ð": 149,
      "Ñ": 150,
      "Ò": 151,
      "Ó": 152,
      "Ô": 153,
      "Õ": 154,
      "Ö": 155,
      "×": 156,
      "Ø": 157,
      "Ù": 158,
      "Ú": 159,
      "Û": 160,
      "Ü": 161,
      "Ý": 162,
      "Þ": 163,
      "ß": 164,
      "à": 165,
      "á": 166,
      "â": 167,
      "ã": 168,
      "ä": 169,
      "å": 170,
      "æ": 171,
      "ç": 172,
      "è": 173,
      "é": 174,
      "ê": 175,
      "ë": 176,
      "ì": 177,
      "í": 178,
      "î": 179,
      "ï": 180,
      "ð": 181,
      "ñ": 182,
      "ò": 183,
      "ó": 184,
      "ô": 185,
      "õ": 186,
      "ö": 187,
      "÷": 188,
      "ø": 189,
      "ù": 190,
      "ú": 191,
      "û": 192,
      "ü": 193,
      "ý": 194,
      "þ": 195,
      "ÿ": 196,
      "Ā": 197,
      "ā": 198,
      "Ă": 199,
      "ă": 200,
      "Ą": 201,
      "ą": 202,
      "Ć": 203,
      "ć": 204,
      "Ĉ": 205,
      "ĉ": 206,
      "Ċ": 207,
      "ċ": 208,
      "Č": 209,
      "č": 210,
      "Ď": 211,
      "ď": 212,
      "Đ": 213,
      "đ": 214,
      "Ē": 215,
      "ē": 216,
      "Ĕ": 217,
      "ĕ": 218,
      "Ė": 219,
      "ė": 220,
      "Ę": 221,
      "ę": 222,
      "Ě": 223,
      "ě": 224,
      "Ĝ": 225,
      "ĝ": 226,
      "Ğ": 227,
      "ğ": 228,
      "Ġ": 229,
      "ġ": 230,
      "Ģ": 231,
      "ģ": 232,
      "Ĥ": 233,
      "ĥ": 234,
      "Ħ": 235,
      "ħ": 236,
      "Ĩ": 237,
      "ĩ": 238,
      "Ī": 239,
      "ī": 240,
      "Ĭ": 241,
      "ĭ": 242,
      "Į": 243,
      "į": 244,
      "İ": 245,
      "ı": 246,
      "Ĳ": 247,
      "ĳ": 248,
      "Ĵ": 249,
      "ĵ": 250,
      "Ķ": 251,
      "ķ": 252,
      "ĸ": 253,
      "Ĺ": 254,
      "ĺ": 255,
      "Ļ": 256,
      "ļ": 257,
      "Ľ": 258,
      "ľ": 259,
      "Ŀ": 260,
      "ŀ": 261,
      "Ł": 262,
      "ł": 263,
      "Ń": 264,
      "ãģ": 265,
      "Ġt": 266,
      "ä¸": 267,
      "ï¼": 268,
      "he": 269,
      "ãĤ": 270,
      "Ġa": 271,
      "ãĢ": 272,
      "ï¼Į": 273,
      "ãĢĤ": 274,
      "in": 275,
      "Ġthe": 276,
      "Ġs": 277,
      "Ġw": 278,
      "çļ": 279,
      "çļĦ": 280,
      "Ġo": 281,
      "äº": 282,
      "re": 283,
      "ä»": 284,
      "ãĥ": 285,
      "æĺ": 286,
      "nd": 287,
      "è¿": 288,
      "æĺ¯": 289,
      "ha": 290,
      "er": 291,
      "Ġb": 292,
      "æĪ": 293,
      "ou": 294,
      "Ġm": 295,
      "Ġi": 296,
      "Ġc": 297,
      "æľ": 298,
      "ä½": 299,
      "Ġf": 300,
      "å°": 301,
      "å¤": 302,
      "æĪĳ": 303,
      "ed": 304,
      "en": 305,
      "on": 306,
      "ä¸Ģ": 307,
      "Ġof": 308,
      "åı": 309,
      "Ġto": 310,
      "ä¸ª": 311,
      "ä¹": 312,
      "ing": 313,
      "è¿Ļ": 314,
      "ãģĦ": 315,
      "åĲ": 316,
      "Ġand": 317,
      "hi": 318,
      "or": 319,
      "Ġp": 320,
      "Ġd": 321,
      "ãģ®": 322,
      "å®": 323,
      "es": 324,
      "å°±": 325,
      "it": 326,
      "ll": 327,
      "Ġl": 328,
      "Ġin": 329,
      "åĪ": 330,
      "è¯": 331,
      "åħ": 332,
      "ar": 333,
      "an": 334,
      "ãģ§": 335,
      "as": 336,
      "äºĨ": 337,
      "at": 338,
      "åľ": 339,
      "Ġhe": 340,
      "ãģ¦": 341,
      "ä¸į": 342,
      "Ġn": 343,
      "ä½ł": 344,
      "ãģĹ": 345,
      "æľī": 346,
      "ãģĻ": 347,
      "Ġg": 348,
      "ãģ¨": 349,
      "ãģŁ": 350,
      "Ġha": 351,
      "om": 352,
      "ä»ĸ": 353,
      "hat": 354,
      "å¾": 355,
      "åĳ": 356,
      "ãģ«": 357,
      "æĿ": 358,
      "st": 359,
      "éĤ": 360,
      "ãģª": 361,
      "åĽ": 362,
      "æĹ": 363,
      "Ġbe": 364,
      "éĤ£": 365,
      "ãģ¾": 366,
      "le": 367,
      "åľ¨": 368,
      "äºº": 369,
      "æī": 370,
      "ãģ£": 371,
      "Ġe": 372,
      "ãģĮ": 373,
      "Ġy": 374,
      "çĶ": 375,
      "ĥ½": 376,
      "Ġhi": 377,
      "ot": 378,
      "ow": 379,
      "ãģĭ": 380,
      "ãģ¯": 381,
      "ãģĨ": 382,
      "ä¼": 383,
      "å¥": 384,
      "ve": 385,
      "ut": 386,
      "Ġthat": 387,
      "åķ": 388,
      "è¯´": 389,
      "se": 390,
      "å¯": 391,
      "ä»¬": 392,
      "ï¼Ł": 393,
      "ãĤĭ": 394,
      "åŃ": 395,
      "ãĤĵ": 396,
      "ç»": 397,
      "Ġit": 398,
      "è¿Ļä¸ª": 399,
      "Ġyou": 400,
      "ld": 401,
      "ce": 402,
      "Ġre": 403,
      "è¦": 404,
      "ent": 405,
      "åķĬ": 406,
      "ly": 407,
      "ãĢģ": 408,
      "ri": 409,
      "ãĤĴ": 410,
      "ãģĵ": 411,
      "æĿ¥": 412,
      "Ġon": 413,
      "ion": 414,
      "gh": 415,
      "ä¹Ī": 416,
      "Ġwas": 417,
      "al": 418,
      "å°±æĺ¯": 419,
      "çľ": 420,
      "åį": 421,
      "å¤§": 422,
      "æĢ": 423,
      "Ġu": 424,
      "ch": 425,
      "è§": 426,
      "æĸ": 427,
      "èĢ": 428,
      "id": 429,
      "ay": 430,
      "å¹": 431,
      "et": 432,
      "åİ": 433,
      "å¯¹": 434,
      "ver": 435,
      "éĩ": 436,
      "åĲİ": 437,
      "Ġwe": 438,
      "è®": 439,
      "ãĤĮ": 440,
      "å¸": 441,
      "Ġfor": 442,
      "åĩ": 443,
      "ãĤĤ": 444,
      "å·": 445,
      "Ġth": 446,
      "æĥ": 447,
      "ä»¥": 448,
      "åĬ": 449,
      "ith": 450,
      "è¦ģ": 451,
      "ãĤī": 452,
      "ä¼ļ": 453,
      "ä¸Ĭ": 454,
      "Ġst": 455,
      "Ġis": 456,
      "åĪ°": 457,
      "ä¸Ģä¸ª": 458,
      "å¼": 459,
      "æ²": 460,
      "Ġas": 461,
      "ro": 462,
      "çĦ": 463,
      "ir": 464,
      "å¥½": 465,
      "ãģ§ãģĻ": 466,
      "åĨ": 467,
      "Ġwith": 468,
      "is": 469,
      "å½": 470,
      "ct": 471,
      "ä¹Ł": 472,
      "Ġh": 473,
      "ãĤĬ": 474,
      "æł": 475,
      "æĹ¶": 476,
      "åĵ": 477,
      "å¿": 478,
      "ur": 479,
      "çĦ¶": 480,
      "Ġhis": 481,
      "ad": 482,
      "and": 483,
      "éĿ": 484,
      "ght": 485,
      "ãĥ¼": 486,
      "ä¸º": 487,
      "åı¯": 488,
      "çĽ": 489,
      "åº": 490,
      "åĳ¢": 491,
      "ç§": 492,
      "æĪĳä»¬": 493,
      "ic": 494,
      "èĥ½": 495,
      "çİ": 496,
      "ãģ£ãģ¦": 497,
      "éģ": 498,
      "æĬ": 499,
      "éĢ": 500,
      "Ġan": 501,
      "èĩ": 502,
      "éĥ½": 503,
      "èµ": 504,
      "the": 505,
      "å¾Ĺ": 506,
      "æĦ": 507,
      "è¡": 508,
      "Ġnot": 509,
      "ãģķ": 510,
      "åİ»": 511,
      "am": 512,
      "æŃ": 513,
      "å®¶": 514,
      "ä¸Ń": 515,
      "ke": 516,
      "éĹ": 517,
      "æ²¡": 518,
      "æ¯": 519,
      "ãģĤ": 520,
      "ãģĿ": 521,
      "Ġhad": 522,
      "ãģ¾ãģĻ": 523,
      "è¿ĺ": 524,
      "åŃĲ": 525,
      "oo": 526,
      "å¤ļ": 527,
      "Ġse": 528,
      "å¦": 529,
      "Ġat": 530,
      "ould": 531,
      "åĢ": 532,
      "çľĭ": 533,
      "åĩº": 534,
      "è·": 535,
      "çī": 536,
      "å¾Ī": 537,
      "Ġli": 538,
      "ãģı": 539,
      "æķ": 540,
      "ra": 541,
      "ter": 542,
      "Ġher": 543,
      "ãģĹãģŁ": 544,
      "ãģį": 545,
      "äºĭ": 546,
      "ãģł": 547,
      "Ġk": 548,
      "his": 549,
      "æ°": 550,
      "èĩª": 551,
      "æīĢ": 552,
      "è¾": 553,
      "ãĥ³": 554,
      "ä»Ģ": 555,
      "Ġme": 556,
      "ä¸ĭ": 557,
      "åĽ½": 558,
      "å¹´": 559,
      "çĶŁ": 560,
      "ãĤĪ": 561,
      "ä»Ģä¹Ī": 562,
      "Ġso": 563,
      "åī": 564,
      "åģ": 565,
      "all": 566,
      "Ġsu": 567,
      "ill": 568,
      "ain": 569,
      "å®ŀ": 570,
      "çĦ¶åĲİ": 571,
      "åĴ": 572,
      "å¤©": 573,
      "ore": 574,
      "ãģĹãģ¦": 575,
      "ess": 576,
      "æĭ": 577,
      "æĶ": 578,
      "æł·": 579,
      "Ġwhi": 580,
      "åĮ": 581,
      "è¿ĩ": 582,
      "Ġde": 583,
      "å½ĵ": 584,
      "Ġhim": 585,
      "ãģĳ": 586,
      "è§ī": 587,
      "ãģ©": 588,
      "Ġhave": 589,
      "ãģŃ": 590,
      "ho": 591,
      "red": 592,
      "çĤ": 593,
      "æĥ³": 594,
      "ck": 595,
      "éĩĮ": 596,
      "il": 597,
      "çĿ": 598,
      "im": 599,
      "æŀ": 600,
      "Ġshe": 601,
      "Ġfr": 602,
      "Ġby": 603,
      "Ġsa": 604,
      "ãģ¡": 605,
      "çİ°": 606,
      "Ġthis": 607,
      "äºĽ": 608,
      "æ³": 609,
      "Ġbut": 610,
      "ome": 611,
      "Ġj": 612,
      "ç§į": 613,
      "Ġall": 614,
      "Ġthey": 615,
      "çŁ": 616,
      "Ġdo": 617,
      "pp": 618,
      "Ġne": 619,
      "å°ı": 620,
      "æİ": 621,
      "éĤ£ä¸ª": 622,
      "åħ¶": 623,
      "her": 624,
      "åĽł": 625,
      "æĮ": 626,
      "éĿ¢": 627,
      "Ġcon": 628,
      "æľ¬": 629,
      "åĢĻ": 630,
      "ä½Ĩ": 631,
      "éĻ": 632,
      "æĸ¹": 633,
      "ul": 634,
      "å±": 635,
      "æ¬": 636,
      "ge": 637,
      "Ġmy": 638,
      "ä¿": 639,
      "éĽ": 640,
      "th": 641,
      "çĤ¹": 642,
      "ãģĬ": 643,
      "Ġv": 644,
      "æĹ¥": 645,
      "qu": 646,
      "æĻ": 647,
      "éģĵ": 648,
      "Ġor": 649,
      "æĹ¶åĢĻ": 650,
      "Ġwhe": 651,
      "çĻ": 652,
      "åĪĨ": 653,
      "åīį": 654,
      "ation": 655,
      "ãģ£ãģŁ": 656,
      "Ġfrom": 657,
      "è°": 658,
      "æ²¡æľī": 659,
      "us": 660,
      "çĿĢ": 661,
      "ä¹ĭ": 662,
      "ãģĦãģĨ": 663,
      "ä»Ĭ": 664,
      "est": 665,
      "è·Ł": 666,
      "pe": 667,
      "å¦Ĥ": 668,
      "æľĢ": 669,
      "ight": 670,
      "Ġwhich": 671,
      "Ġup": 672,
      "Ġex": 673,
      "Ġare": 674,
      "çĪ": 675,
      "è¡Į": 676,
      "ust": 677,
      "ãģĭãĤī": 678,
      "ant": 679,
      "åĲ§": 680,
      "Ġone": 681,
      "è§īå¾Ĺ": 682,
      "é¢": 683,
      "åĽłä¸º": 684,
      "å¿ĥ": 685,
      "Ġgo": 686,
      "ãĤ¹": 687,
      "æĥħ": 688,
      "æµ": 689,
      "ãĥ¼ãĥ": 690,
      "ãģĪ": 691,
      "ers": 692,
      "Ġwere": 693,
      "ble": 694,
      "åĹ": 695,
      "Ġal": 696,
      "nt": 697,
      "å§": 698,
      "çŁ¥": 699,
      "res": 700,
      "åĴĮ": 701,
      "æ¯Ķ": 702,
      "ãĤĦ": 703,
      "åľ°": 704,
      "Ġr": 705,
      "ous": 706,
      "åģļ": 707,
      "æĽ": 708,
      "Ġkn": 709,
      "è´": 710,
      "if": 711,
      "èĢħ": 712,
      "åĳĥ": 713,
      "Ġwho": 714,
      "ãģªãģĦ": 715,
      "åĹ¯": 716,
      "çĲ": 717,
      "very": 718,
      "ãģ¾ãģĹãģŁ": 719,
      "è¯Ŀ": 720,
      "Ġthere": 721,
      "ç»ı": 722,
      "ç»Ļ": 723,
      "æīĢä»¥": 724,
      "æ´": 725,
      "Ġman": 726,
      "åįģ": 727,
      "out": 728,
      "åĥ": 729,
      "åĽŀ": 730,
      "å·±": 731,
      "um": 732,
      "å¼Ģ": 733,
      "åĦ": 734,
      "æĦŁ": 735,
      "art": 736,
      "æ¸": 737,
      "ä¸įæĺ¯": 738,
      "ind": 739,
      "ol": 740,
      "åħ¶å®ŀ": 741,
      "çľŁ": 742,
      "ard": 743,
      "èĩªå·±": 744,
      "Ġab": 745,
      "Ġsh": 746,
      "ç¬": 747,
      "Ġno": 748,
      "åıĳ": 749,
      "Ġcom": 750,
      "our": 751,
      "æĪĲ": 752,
      "æīĭ": 753,
      "ãģĵãģ¨": 754,
      "Ġthem": 755,
      "åŃ¦": 756,
      "te": 757,
      "Ġwor": 758,
      "å¸¸": 759,
      "Ġfe": 760,
      "ï¼ģ": 761,
      "åı¯ä»¥": 762,
      "æĦı": 763,
      "çĶ¨": 764,
      "å®ļ": 765,
      "fe": 766,
      "ate": 767,
      "Ġsaid": 768,
      "ï¼ĳ": 769,
      "èµ·": 770,
      "æŀľ": 771,
      "ç¾": 772,
      "ä»ĸä»¬": 773,
      "ä½Ĩæĺ¯": 774,
      "ä½ľ": 775,
      "çº": 776,
      "ame": 777,
      "Ġwhat": 778,
      "Ġle": 779,
      "åı¯èĥ½": 780,
      "éķ": 781,
      "os": 782,
      "åĦ¿": 783,
      "ãĤ¤": 784,
      "åĪ«": 785,
      "ong": 786,
      "ç«": 787,
      "äºĮ": 788,
      "Ġwould": 789,
      "one": 790,
      "è½": 791,
      "èĢĮ": 792,
      "æĬĬ": 793,
      "ãģķãĤĵ": 794,
      "æĢĿ": 795,
      "çķ": 796,
      "lf": 797,
      "ood": 798,
      "ãģĦãģ¾ãģĻ": 799,
      "éĺ": 800,
      "Ġout": 801,
      "Ġtheir": 802,
      "ound": 803,
      "un": 804,
      "çŃ": 805,
      "ä¸ī": 806,
      "han": 807,
      "Ġpro": 808,
      "ive": 809,
      "la": 810,
      "ist": 811,
      "ãĤĵãģ§ãģĻ": 812,
      "åĥı": 813,
      "ãģ¤": 814,
      "ast": 815,
      "èĤ": 816,
      "ãĤģ": 817,
      "ãĤı": 818,
      "to": 819,
      "è¨": 820,
      "èĢģ": 821,
      "è¶": 822,
      "ãģ¨ãģĦãģĨ": 823,
      "éĥ": 824,
      "èĬ": 825,
      "çļĦæĹ¶åĢĻ": 826,
      "li": 827,
      "é£": 828,
      "ven": 829,
      "ãĤĥ": 830,
      "éļ": 831,
      "ther": 832,
      "çİ°åľ¨": 833,
      "ak": 834,
      "Ġwill": 835,
      "Ġwhen": 836,
      "æ±": 837,
      "é«": 838,
      "ough": 839,
      "Ġif": 840,
      "em": 841,
      "è¿Ļæł·": 842,
      "Ġcan": 843,
      "åħ¨": 844,
      "ç®": 845,
      "åĸ": 846,
      "ãĥĪ": 847,
      "Ġknow": 848,
      "äºİ": 849,
      "éĸ": 850,
      "é«ĺ": 851,
      "ity": 852,
      "ï¼Ĳ": 853,
      "æĢİ": 854,
      "we": 855,
      "ook": 856,
      "ä¾": 857,
      "ort": 858,
      "op": 859,
      "èģ": 860,
      "é¡": 861,
      "Ġbeen": 862,
      "ãĥĥ": 863,
      "éĹ®": 864,
      "çŁ¥éģĵ": 865,
      "çĽ®": 866,
      "åĺ": 867,
      "çī¹": 868,
      "æ³ķ": 869,
      "ry": 870,
      "éĹ´": 871,
      "å¤§å®¶": 872,
      "çĲĨ": 873,
      "¥¿": 874,
      "ally": 875,
      "Ġfa": 876,
      "æĢİä¹Ī": 877,
      "åĲ¬": 878,
      "ãģ¿": 879,
      "ãģĺ": 880,
      "åıª": 881,
      "ä¸¤": 882,
      "Ġyour": 883,
      "è¥¿": 884,
      "éĿŀ": 885,
      "ig": 886,
      "reat": 887,
      "ä½ĵ": 888,
      "pt": 889,
      "æĺİ": 890,
      "åĿ": 891,
      "èº": 892,
      "ãĥ©": 893,
      "åĲĮ": 894,
      "Ġar": 895,
      "Ġlike": 896,
      "åĲĹ": 897,
      "ãĤĩ": 898,
      "au": 899,
      "éĥ¨": 900,
      "å¥³": 901,
      "itt": 902,
      "Ġsp": 903,
      "æĸ°": 904,
      "å¤ĸ": 905,
      "Ġqu": 906,
      "è¢": 907,
      "Ġtw": 908,
      "Ġri": 909,
      "åĬĽ": 910,
      "ãĥª": 911,
      "Ġun": 912,
      "ost": 913,
      "åŁ": 914,
      "Ġmore": 915,
      "ï¼Ĵ": 916,
      "ure": 917,
      "è®©": 918,
      "æīĵ": 919,
      "ake": 920,
      "Ġro": 921,
      "æģ": 922,
      "åħĪ": 923,
      "åĭ": 924,
      "æŃ£": 925,
      "ä¸»": 926,
      "ç½": 927,
      "ç¾İ": 928,
      "Ġtim": 929,
      "Ġag": 930,
      "Ġsome": 931,
      "ãĤ¢": 932,
      "ine": 933,
      "ãĤ¯": 934,
      "åĨį": 935,
      "æĢ§": 936,
      "ç¬¬": 937,
      "å£": 938,
      "ci": 939,
      "own": 940,
      "Ġen": 941,
      "å¤ª": 942,
      "ç©": 943,
      "ãĥ«": 944,
      "æı": 945,
      "æ¬¡": 946,
      "ä¸ľ": 947,
      "Ġabout": 948,
      "de": 949,
      "åħ¥": 950,
      "self": 951,
      "åĲĪ": 952,
      "ãģĵãģ®": 953,
      "å®ĥ": 954,
      "ãģĻãĤĭ": 955,
      "åħ¬": 956,
      "ä»İ": 957,
      "ç´": 958,
      "ãģĦãĤĭ": 959,
      "Ġam": 960,
      "ä¸ĢäºĽ": 961,
      "åħ³": 962,
      "Ġany": 963,
      "Ġaf": 964,
      "èº«": 965,
      "ç¥": 966,
      "æĪĳè§īå¾Ĺ": 967,
      "ment": 968,
      "hed": 969,
      "ãģĽ": 970,
      "éķ¿": 971,
      "éĴ": 972,
      "Ġus": 973,
      "è®²": 974,
      "ink": 975,
      "åĬ¨": 976,
      "Ġcould": 977,
      "æĤ": 978,
      "çĽ¸": 979,
      "ç¤": 980,
      "ç¨": 981,
      "ãĤį": 982,
      "åº¦": 983,
      "éĩį": 984,
      "Ġinto": 985,
      "è¾¹": 986,
      "çµ": 987,
      "æľĪ": 988,
      "åł": 989,
      "ose": 990,
      "çĽ´": 991,
      "Ġthen": 992,
      "ord": 993,
      "æŁ": 994,
      "å¦Ĥæŀľ": 995,
      "éĤ£ä¹Ī": 996,
      "è¦ĭ": 997,
      "è¿Ļç§į": 998,
      "æĪĸ": 999,
      "ãģĿãģĨ": 1000,
      "ag": 1001,
      "è¢«": 1002,
      "ond": 1003,
      "éĿŀå¸¸": 1004,
      "ãģĶ": 1005,
      "el": 1006,
      "èĭ": 1007,
      "æĽ´": 1008,
      "Ġother": 1009,
      "åĺĽ": 1010,
      "but": 1011,
      "ings": 1012,
      "èĦ": 1013,
      "é¢ĺ": 1014,
      "ä½ķ": 1015,
      "å¾Īå¤ļ": 1016,
      "ack": 1017,
      "Ġte": 1018,
      "Ġvery": 1019,
      "ies": 1020,
      "Ġpe": 1021,
      "hing": 1022,
      "èµ°": 1023,
      "ence": 1024,
      "Ġim": 1025,
      "èĪ": 1026,
      "ass": 1027,
      "å·²": 1028,
      "Ġour": 1029,
      "è¿ĺæĺ¯": 1030,
      "ved": 1031,
      "Ġtime": 1032,
      "é¦": 1033,
      "åĳĢ": 1034,
      "Ġdid": 1035,
      "åıĭ": 1036,
      "èī": 1037,
      "cc": 1038,
      "åºĶ": 1039,
      "per": 1040,
      "so": 1041,
      "Ġnow": 1042,
      "Ġtr": 1043,
      "Ġcl": 1044,
      "æ´»": 1045,
      "ãģĦãģ¦": 1046,
      "Ġthan": 1047,
      "æīį": 1048,
      "way": 1049,
      "ä»£": 1050,
      "è¿Ľ": 1051,
      "ä½į": 1052,
      "ãģĵãĤĮ": 1053,
      "æ®": 1054,
      "ie": 1055,
      "Ġsha": 1056,
      "åĵİ": 1057,
      "æį": 1058,
      "çģ": 1059,
      "ree": 1060,
      "are": 1061,
      "åĨħ": 1062,
      "Ġhas": 1063,
      "åıĪ": 1064,
      "ãģĦãģŁ": 1065,
      "éŁ": 1066,
      "ice": 1067,
      "å®Į": 1068,
      "åĬł": 1069,
      "æİ¥": 1070,
      "able": 1071,
      "ä»ĸçļĦ": 1072,
      "éĢļ": 1073,
      "Ġad": 1074,
      "ab": 1075,
      "Ġsay": 1076,
      "å§ĭ": 1077,
      "Ġsee": 1078,
      "ove": 1079,
      "å°ĳ": 1080,
      "äºĶ": 1081,
      "æ¥": 1082,
      "Ġgr": 1083,
      "ance": 1084,
      "Ġbo": 1085,
      "ä¿¡": 1086,
      "ction": 1087,
      "å¤´": 1088,
      "ide": 1089,
      "fore": 1090,
      "åı«": 1091,
      "Ġlook": 1092,
      "Ġover": 1093,
      "è¡¨": 1094,
      "Ġdis": 1095,
      "Ġhow": 1096,
      "çĹ": 1097,
      "æĻĤ": 1098,
      "è§£": 1099,
      "Ġbr": 1100,
      "ç³": 1101,
      "ãģ«ãģª": 1102,
      "ty": 1103,
      "ep": 1104,
      "æľŁ": 1105,
      "urn": 1106,
      "ars": 1107,
      "other": 1108,
      "Ġcha": 1109,
      "çī©": 1110,
      "ittle": 1111,
      "ãĤ·": 1112,
      "çļĦäºº": 1113,
      "çļĦè¯Ŀ": 1114,
      "ãĤĮãģ¦": 1115,
      "å·¥": 1116,
      "è¨Ģ": 1117,
      "ought": 1118,
      "çŃī": 1119,
      "ade": 1120,
      "åĩł": 1121,
      "ãĤ¿": 1122,
      "æľº": 1123,
      "Ġlittle": 1124,
      "åĪļ": 1125,
      "è¿ĻäºĽ": 1126,
      "æĸĩ": 1127,
      "èĥ": 1128,
      "çĸ": 1129,
      "èª": 1130,
      "æ¼": 1131,
      "çĶµ": 1132,
      "éĶ": 1133,
      "Ġper": 1134,
      "éĥ½æĺ¯": 1135,
      "ãģĤãĤĭ": 1136,
      "Ġye": 1137,
      "è§ģ": 1138,
      "nder": 1139,
      "Ġtwo": 1140,
      "wn": 1141,
      "åĲį": 1142,
      "éľ": 1143,
      "è¯¥": 1144,
      "çľŁçļĦ": 1145,
      "Ġday": 1146,
      "æ°´": 1147,
      "Ġjust": 1148,
      "ä¸ĸ": 1149,
      "å·²ç»ı": 1150,
      "Ġthink": 1151,
      "ãģ§ãģ¯": 1152,
      "ãĥ³ãĥ": 1153,
      "åıĹ": 1154,
      "Ġagain": 1155,
      "åĽĽ": 1156,
      "Ġgreat": 1157,
      "æĶ¾": 1158,
      "å¹³": 1159,
      "ç¦": 1160,
      "ä¸ļ": 1161,
      "Ġpo": 1162,
      "éħ": 1163,
      "æĪĸèĢħ": 1164,
      "çĬ": 1165,
      "ãĤĪãģĨ": 1166,
      "Ġpl": 1167,
      "ber": 1168,
      "ãĢį": 1169,
      "ï¼ĵ": 1170,
      "åĲĥ": 1171,
      "ä¹Łæĺ¯": 1172,
      "è¿Ļä¹Ī": 1173,
      "ä»¶": 1174,
      "å¸Ĥ": 1175,
      "ãĢĮ": 1176,
      "Ġpr": 1177,
      "åıį": 1178,
      "ud": 1179,
      "ving": 1180,
      "ä¸ľè¥¿": 1181,
      "å®ī": 1182,
      "Ġbec": 1183,
      "çļĦä¸Ģä¸ª": 1184,
      "åı°": 1185,
      "ves": 1186,
      "çĪ±": 1187,
      "ress": 1188,
      "è¿ĺæľī": 1189,
      "Ġtoo": 1190,
      "çĻ½": 1191,
      "æĹł": 1192,
      "ac": 1193,
      "ire": 1194,
      "Ġonly": 1195,
      "æĪĳå°±": 1196,
      "ä¸Ģä¸ĭ": 1197,
      "æ°Ĺ": 1198,
      "å½±": 1199,
      "åŃ©": 1200,
      "çĶ·": 1201,
      "ount": 1202,
      "age": 1203,
      "Ġapp": 1204,
      "çļĦè¿Ļä¸ª": 1205,
      "æħ": 1206,
      "æ¶": 1207,
      "åĮĸ": 1208,
      "Ġshould": 1209,
      "åİŁ": 1210,
      "ish": 1211,
      "æ¬¢": 1212,
      "ue": 1213,
      "çĻ¾": 1214,
      "é©": 1215,
      "æ·": 1216,
      "ked": 1217,
      "ãĤ«": 1218,
      "éĩĳ": 1219,
      "èĬĤ": 1220,
      "ä¸ŃåĽ½": 1221,
      "ãģĿãģ®": 1222,
      "Ġgood": 1223,
      "çĥ": 1224,
      "æĴ": 1225,
      "ãĥŃ": 1226,
      "æ¯ı": 1227,
      "Ġhand": 1228,
      "Ġpart": 1229,
      "Ġafter": 1230,
      "ä½łä»¬": 1231,
      "ãĤĬãģ¾ãģĻ": 1232,
      "çĭ": 1233,
      "Ġco": 1234,
      "ans": 1235,
      "å¦Ī": 1236,
      "Ġdown": 1237,
      "Ġfl": 1238,
      "éĹ®é¢ĺ": 1239,
      "ary": 1240,
      "æľĭ": 1241,
      "æĮģ": 1242,
      "è¿ĳ": 1243,
      "èŃ": 1244,
      "Ġway": 1245,
      "è±": 1246,
      "Ġthr": 1247,
      "æµ·": 1248,
      "è¾ĥ": 1249,
      "å¸Ī": 1250,
      "ãĤĵãģª": 1251,
      "äºĭæĥħ": 1252,
      "æĪĳçļĦ": 1253,
      "Ġevery": 1254,
      "åıĺ": 1255,
      "å²": 1256,
      "æ°ĳ": 1257,
      "Ġupon": 1258,
      "çī¹åĪ«": 1259,
      "ãģ°": 1260,
      "ather": 1261,
      "Ġoff": 1262,
      "å¯¹å¯¹": 1263,
      "ãģĿãĤĮ": 1264,
      "Ġfir": 1265,
      "ä¸ĩ": 1266,
      "ite": 1267,
      "éĴ±": 1268,
      "pl": 1269,
      "ated": 1270,
      "æľĭåıĭ": 1271,
      "ach": 1272,
      "åĸľ": 1273,
      "ãĤĩãģĨ": 1274,
      "é»": 1275,
      "uch": 1276,
      "Ġpre": 1277,
      "çł": 1278,
      "åľº": 1279,
      "æ¡": 1280,
      "Ġbl": 1281,
      "ãĥ¬": 1282,
      "ä»Ĭå¤©": 1283,
      "çı": 1284,
      "Ġthese": 1285,
      "éĸĵ": 1286,
      "Ġget": 1287,
      "Ġwell": 1288,
      "ä¸Ķ": 1289,
      "Ġbefore": 1290,
      "ä½łçļĦ": 1291,
      "ç¡": 1292,
      "ĠI": 1293,
      "ãģ£ãģ¨": 1294,
      "Ġwhere": 1295,
      "Ġits": 1296,
      "è£": 1297,
      "Ġsc": 1298,
      "èĲ": 1299,
      "ä¹ĭåĲİ": 1300,
      "å¢": 1301,
      "ft": 1302,
      "Ġmay": 1303,
      "ç±": 1304,
      "ople": 1305,
      "èĻ": 1306,
      "æķ°": 1307,
      "æ¯Ķè¾ĥ": 1308,
      "ç»ĵ": 1309,
      "ful": 1310,
      "çķĮ": 1311,
      "ause": 1312,
      "Ġmade": 1313,
      "bl": 1314,
      "ren": 1315,
      "åħ«": 1316,
      "å±±": 1317,
      "è½¦": 1318,
      "ç³»": 1319,
      "åĵģ": 1320,
      "æī¾": 1321,
      "æıĲ": 1322,
      "åĲĳ": 1323,
      "ull": 1324,
      "The": 1325,
      "åĵ¦": 1326,
      "æķĻ": 1327,
      "åĩºæĿ¥": 1328,
      "ps": 1329,
      "Ġlong": 1330,
      "åı£": 1331,
      "od": 1332,
      "éŁ³": 1333,
      "ãĥ¡": 1334,
      "Ġback": 1335,
      "ness": 1336,
      "Ġunder": 1337,
      "ãĤĵãģł": 1338,
      "Ġpeople": 1339,
      "è®¤": 1340,
      "ãģ§ãĤĤ": 1341,
      "å¼Ģå§ĭ": 1342,
      "éª": 1343,
      "Ġspe": 1344,
      "ç²": 1345,
      "æĹ¥æľ¬": 1346,
      "ward": 1347,
      "å¥¹": 1348,
      "Ġmr": 1349,
      "be": 1350,
      "Ġmuch": 1351,
      "Ġfirst": 1352,
      "Ġhere": 1353,
      "åĪ°äºĨ": 1354,
      "ãģ»": 1355,
      "ãģĺãĤĥ": 1356,
      "å¿«": 1357,
      "æĹ¶éĹ´": 1358,
      "åĲĦ": 1359,
      "ãĤĮãģŁ": 1360,
      "åºĶè¯¥": 1361,
      "Ġeven": 1362,
      "Ġrem": 1363,
      "Ġra": 1364,
      "æŃ»": 1365,
      "éĩĮéĿ¢": 1366,
      "Ġsm": 1367,
      "åĵª": 1368,
      "ãģ¡ãĤĥ": 1369,
      "ãģ§ãģĻãģŃ": 1370,
      "ãģļ": 1371,
      "ç«ĭ": 1372,
      "for": 1373,
      "ff": 1374,
      "ãģ¨æĢĿ": 1375,
      "Ġcome": 1376,
      "ãĤĮãĤĭ": 1377,
      "ãģĳãģ©": 1378,
      "åıĸ": 1379,
      "æĶ¿": 1380,
      "ä¹Ŀ": 1381,
      "Ġrec": 1382,
      "åĪ©": 1383,
      "ãĤ¸": 1384,
      "Ġcomp": 1385,
      "Ġmar": 1386,
      "åĳĬ": 1387,
      "ions": 1388,
      "åĪ¶": 1389,
      "ä½ı": 1390,
      "Ġbet": 1391,
      "å¤Ł": 1392,
      "ãĥķ": 1393,
      "è©": 1394,
      "orn": 1395,
      "èį": 1396,
      "hy": 1397,
      "è¿Ļæĺ¯": 1398,
      "åĮĹ": 1399,
      "Ġcont": 1400,
      "Ġdon": 1401,
      "ãģĹãģĦ": 1402,
      "Ġres": 1403,
      "Ġnever": 1404,
      "è®°": 1405,
      "Ġfo": 1406,
      "ãģ®ãģ¯": 1407,
      "Ġold": 1408,
      "è¶Ĭ": 1409,
      "Ġchi": 1410,
      "å¸¦": 1411,
      "Ġsuch": 1412,
      "Ġmust": 1413,
      "å¹²": 1414,
      "æķ´": 1415,
      "ces": 1416,
      "ãĤ³": 1417,
      "Ġdes": 1418,
      "è·¯": 1419,
      "æ°Ķ": 1420,
      "ap": 1421,
      "å®¹": 1422,
      "è°¢": 1423,
      "åĴ±": 1424,
      "ï¼ķ": 1425,
      "Ġstr": 1426,
      "å»": 1427,
      "Ġlet": 1428,
      "Ġcame": 1429,
      "ä¸ĢçĤ¹": 1430,
      "åĶ": 1431,
      "ious": 1432,
      "è»": 1433,
      "ä½¿": 1434,
      "ãģĦãģĦ": 1435,
      "ç¥ŀ": 1436,
      "ä¿Ŀ": 1437,
      "åħŃ": 1438,
      "Ġho": 1439,
      "åĮħ": 1440,
      "æ»": 1441,
      "Ġown": 1442,
      "çª": 1443,
      "èĢĮä¸Ķ": 1444,
      "éĽ¶": 1445,
      "æ¯Ķå¦Ĥ": 1446,
      "Ġwork": 1447,
      "Ġthose": 1448,
      "ä¸Ģæł·": 1449,
      "Ġthrough": 1450,
      "ç·": 1451,
      "åħ±": 1452,
      "å©": 1453,
      "éļ¾": 1454,
      "ãĥģ": 1455,
      "äº¤": 1456,
      "éĩı": 1457,
      "ãĤĵãģ§": 1458,
      "ç¤¾": 1459,
      "æĹ©": 1460,
      "ä¹Ĳ": 1461,
      "èĢĥ": 1462,
      "ãģ¨ãģĦãģĨãģĵãģ¨": 1463,
      "ç¶": 1464,
      "Ġpla": 1465,
      "Ġrep": 1466,
      "ert": 1467,
      "æļ": 1468,
      "é©¬": 1469,
      "å£°": 1470,
      "Ġimp": 1471,
      "ect": 1472,
      "int": 1473,
      "ãģ®ãģ§": 1474,
      "ä¸įèĥ½": 1475,
      "å¾Į": 1476,
      "çļĦæĺ¯": 1477,
      "éĹ¨": 1478,
      "Ġmen": 1479,
      "ady": 1480,
      "omet": 1481,
      "å½ĵæĹ¶": 1482,
      "ory": 1483,
      "åł´": 1484,
      "Ġlife": 1485,
      "Ġwant": 1486,
      "Ġmake": 1487,
      "ä»»": 1488,
      "æĪĳæĺ¯": 1489,
      "Ġgl": 1490,
      "æµģ": 1491,
      "Ġcomm": 1492,
      "èī²": 1493,
      "ç®Ĺ": 1494,
      "ãĥĹ": 1495,
      "Ġright": 1496,
      "ase": 1497,
      "ï¼Ķ": 1498,
      "llow": 1499,
      "Ġnew": 1500,
      "ick": 1501,
      "iz": 1502,
      "rie": 1503,
      "åŃ©åŃĲ": 1504,
      "ced": 1505,
      "ãĥŀ": 1506,
      "é£Ł": 1507,
      "éĤ£ç§į": 1508,
      "ãģ«ãģ¯": 1509,
      "iss": 1510,
      "Ġmight": 1511,
      "Ġch": 1512,
      "Ġthought": 1513,
      "ç®¡": 1514,
      "å¼ł": 1515,
      "æĢ»": 1516,
      "ï½": 1517,
      "å¼ı": 1518,
      "å¨": 1519,
      "æ¼Ķ": 1520,
      "ried": 1521,
      "ç©º": 1522,
      "äº§": 1523,
      "ä¸įä¼ļ": 1524,
      "æ®µ": 1525,
      "Ġey": 1526,
      "ãģ©ãģĨ": 1527,
      "èĬ±": 1528,
      "ily": 1529,
      "ah": 1530,
      "åŁº": 1531,
      "Ġob": 1532,
      "æĲ": 1533,
      "ãģªãģ©": 1534,
      "ä¸ºä»Ģä¹Ī": 1535,
      "çĬ¶": 1536,
      "oss": 1537,
      "ç¡®": 1538,
      "ä¸ĥ": 1539,
      "ç¢": 1540,
      "æľĽ": 1541,
      "åħī": 1542,
      "ang": 1543,
      "Ġcall": 1544,
      "ix": 1545,
      "åŃĹ": 1546,
      "ign": 1547,
      "ons": 1548,
      "Ġke": 1549,
      "ãĤ¦": 1550,
      "ç¾İåĽ½": 1551,
      "ä¹¦": 1552,
      "Ġmost": 1553,
      "ouse": 1554,
      "Ġem": 1555,
      "æ¨": 1556,
      "æ¢": 1557,
      "ä¸ĸçķĮ": 1558,
      "ater": 1559,
      "çīĩ": 1560,
      "ãĤ°": 1561,
      "Ġhar": 1562,
      "Ġjo": 1563,
      "ç¨ĭ": 1564,
      "ng": 1565,
      "led": 1566,
      "Ġseem": 1567,
      "åĨĻ": 1568,
      "åı·": 1569,
      "æĤ¨": 1570,
      "ãģĹãĤĩãģĨ": 1571,
      "åĸľæ¬¢": 1572,
      "æĦŁè§ī": 1573,
      "ä¸Ģç§į": 1574,
      "é¦ĸ": 1575,
      "Ġsomet": 1576,
      "ç¼": 1577,
      "ä¹°": 1578,
      "äº¬": 1579,
      "ne": 1580,
      "çľĭåĪ°": 1581,
      "å°±æĺ¯è¯´": 1582,
      "ãģ§ãģį": 1583,
      "æĶ¶": 1584,
      "Ġacc": 1585,
      "Ġhimself": 1586,
      "èĩ³": 1587,
      "å¥½çļĦ": 1588,
      "ä¸Ģå®ļ": 1589,
      "çİĭ": 1590,
      "Ġcons": 1591,
      "åĬŀ": 1592,
      "å¿ħ": 1593,
      "æĳ": 1594,
      "ave": 1595,
      "ãĤŃ": 1596,
      "èµ·æĿ¥": 1597,
      "ãĤ¤ãĥ": 1598,
      "æķħ": 1599,
      "åįķ": 1600,
      "ãĤĪãģŃ": 1601,
      "æ³¨": 1602,
      "Ġlo": 1603,
      "Ġbeing": 1604,
      "å®³": 1605,
      "åĵĪ": 1606,
      "çĮ": 1607,
      "ãĥ£": 1608,
      "Ġpres": 1609,
      "çħ": 1610,
      "çİ©": 1611,
      "åĤ": 1612,
      "Ġgoing": 1613,
      "åįĬ": 1614,
      "Ġwent": 1615,
      "çĶŁæ´»": 1616,
      "ãģĴ": 1617,
      "çĻº": 1618,
      "äººçļĦ": 1619,
      "Ġmany": 1620,
      "æĮĩ": 1621,
      "æĭ¿": 1622,
      "Ġwr": 1623,
      "Ġthings": 1624,
      "è°ģ": 1625,
      "iv": 1626,
      "Ġbecause": 1627,
      "ult": 1628,
      "çľ¼": 1629,
      "Ġpass": 1630,
      "ens": 1631,
      "åı¸": 1632,
      "éł": 1633,
      "å¹¶": 1634,
      "man": 1635,
      "æŃĮ": 1636,
      "ç§ģ": 1637,
      "åºķ": 1638,
      "å¾Ģ": 1639,
      "è²": 1640,
      "ath": 1641,
      "æĪĳæĪĳ": 1642,
      "éĢī": 1643,
      "Ġbeg": 1644,
      "åĪĿ": 1645,
      "èµĦ": 1646,
      "ãģĭãģ£ãģŁ": 1647,
      "ãģŁãģĦ": 1648,
      "Ġtake": 1649,
      "Ġcar": 1650,
      "åĳ¨": 1651,
      "éľĢ": 1652,
      "è±¡": 1653,
      "Ġser": 1654,
      "ä¸İ": 1655,
      "ise": 1656,
      "ors": 1657,
      "å°Ĩ": 1658,
      "Ġthree": 1659,
      "èĩªå·±çļĦ": 1660,
      "æ£": 1661,
      "ç¶ļ": 1662,
      "å¿µ": 1663,
      "ä½łè¯´": 1664,
      "æľīä¸Ģä¸ª": 1665,
      "ãģ¾ãģ§": 1666,
      "é¥": 1667,
      "çĶ»": 1668,
      "Ġpri": 1669,
      "ä¸¤ä¸ª": 1670,
      "ä¸įçŁ¥éģĵ": 1671,
      "ãĥĲ": 1672,
      "æĺ¯ä¸Ģä¸ª": 1673,
      "æł¼": 1674,
      "ãģ¹": 1675,
      "ãģĭãģª": 1676,
      "Ġaway": 1677,
      "åĵ¥": 1678,
      "ark": 1679,
      "æ¯Ķå¦Ĥè¯´": 1680,
      "åĳ½": 1681,
      "less": 1682,
      "ä¸ĢçĽ´": 1683,
      "æĪ¿": 1684,
      "ãĤª": 1685,
      "alk": 1686,
      "ãģĤãĤĬ": 1687,
      "cl": 1688,
      "çĶ°": 1689,
      "ition": 1690,
      "ian": 1691,
      "ãģĹãģ¾ãģĻ": 1692,
      "Ġear": 1693,
      "æ±Ĥ": 1694,
      "Ġshall": 1695,
      "Ġend": 1696,
      "æ¸ħ": 1697,
      "whe": 1698,
      "äº²": 1699,
      "Ġturn": 1700,
      "è®º": 1701,
      "Ġlast": 1702,
      "åĳĺ": 1703,
      "ãģ¨ãģĭ": 1704,
      "åĪĩ": 1705,
      "Ġword": 1706,
      "ãģ¡ãĤĩ": 1707,
      "èı": 1708,
      "Ġstill": 1709,
      "åįĥ": 1710,
      "ations": 1711,
      "ened": 1712,
      "åıĳçİ°": 1713,
      "æĪĳè¯´": 1714,
      "æĬķ": 1715,
      "Ġent": 1716,
      "ib": 1717,
      "ä¸įè¦ģ": 1718,
      "çĶ±": 1719,
      "æĪĺ": 1720,
      "Ġop": 1721,
      "å¯¾": 1722,
      "Ġgod": 1723,
      "hes": 1724,
      "èģĬ": 1725,
      "ied": 1726,
      "çĹħ": 1727,
      "Ġla": 1728,
      "èŃ¦": 1729,
      "å¤Ħ": 1730,
      "æľį": 1731,
      "åľ°æĸ¹": 1732,
      "Ġfound": 1733,
      "å¼º": 1734,
      "ãģªãĤĵãģ§ãģĻ": 1735,
      "ãĤµ": 1736,
      "èĬĤçĽ®": 1737,
      "éģ¸": 1738,
      "ru": 1739,
      "åħĥ": 1740,
      "Ġhu": 1741,
      "è¿Ļä¸Ģ": 1742,
      "èħ": 1743,
      "åĨĽ": 1744,
      "æŃ¤": 1745,
      "æº": 1746,
      "Ġhead": 1747,
      "åºĹ": 1748,
      "éĶĻ": 1749,
      "æĻļ": 1750,
      "æĬ¥": 1751,
      "åĳ³": 1752,
      "Ġtell": 1753,
      "éĻ¢": 1754,
      "you": 1755,
      "äºĨä¸Ģ": 1756,
      "ãģ¡ãĤĩãģ£ãģ¨": 1757,
      "ä»¥åĲİ": 1758,
      "ĠL": 1759,
      "Ġalso": 1760,
      "é£İ": 1761,
      "çĲĥ": 1762,
      "vent": 1763,
      "å¸®": 1764,
      "Ġwom": 1765,
      "Ġcour": 1766,
      "å¥½åĥı": 1767,
      "Ġput": 1768,
      "æĮº": 1769,
      "éĵ": 1770,
      "Ġtra": 1771,
      "å½¢": 1772,
      "Ġhouse": 1773,
      "åĴ±ä»¬": 1774,
      "ãĤĤãģĨ": 1775,
      "Ġhapp": 1776,
      "Ġac": 1777,
      "éĽĨ": 1778,
      "æ¹": 1779,
      "ible": 1780,
      "get": 1781,
      "æĿ±": 1782,
      "Ġmo": 1783,
      "çĪ¸": 1784,
      "Ġca": 1785,
      "æľĢåĲİ": 1786,
      "Ġlove": 1787,
      "ä»ĸè¯´": 1788,
      "å½ĵçĦ¶": 1789,
      "oth": 1790,
      "åĮº": 1791,
      "Ġwithout": 1792,
      "Ġdif": 1793,
      "çģ«": 1794,
      "ia": 1795,
      "pect": 1796,
      "ĠM": 1797,
      "Ġsame": 1798,
      "ãģ®ãĥ": 1799,
      "åįĹ": 1800,
      "å¾®": 1801,
      "Ġfar": 1802,
      "å¤±": 1803,
      "aking": 1804,
      "Ġworld": 1805,
      "åĭķ": 1806,
      "ever": 1807,
      "è§Ĥ": 1808,
      "Ġsec": 1809,
      "ç±»": 1810,
      "Ġeyes": 1811,
      "Ġgu": 1812,
      "ç¦»": 1813,
      "Ġact": 1814,
      "ãģĪãģ¦": 1815,
      "å·¥ä½ľ": 1816,
      "ãģ¨ãģĹãģ¦": 1817,
      "ple": 1818,
      "åŀ": 1819,
      "thing": 1820,
      "riend": 1821,
      "æĿ¡": 1822,
      "èĥ½å¤Ł": 1823,
      "æ¯į": 1824,
      "å¾ħ": 1825,
      "ä¹ł": 1826,
      "å·®": 1827,
      "Ġkind": 1828,
      "Ġgot": 1829,
      "Ġind": 1830,
      "æ¸¸": 1831,
      "ged": 1832,
      "å¤§çļĦ": 1833,
      "ç¬¬ä¸Ģ": 1834,
      "å»º": 1835,
      "ä½łå°±": 1836,
      "Ġpers": 1837,
      "lie": 1838,
      "ãĤĤãģ®": 1839,
      "çĪ¶": 1840,
      "Ġcount": 1841,
      "ç½ĳ": 1842,
      "æ¶Ī": 1843,
      "Ġbu": 1844,
      "Ġret": 1845,
      "æ·±": 1846,
      "ãģĹãģ¾ãģĹãģŁ": 1847,
      "ãģ¯ãģĦ": 1848,
      "ä¼ł": 1849,
      "æĶ¹": 1850,
      "éĢģ": 1851,
      "ãģĵãģĨ": 1852,
      "è¯·": 1853,
      "og": 1854,
      "ä¼Ĺ": 1855,
      "ãģ¡ãĤī": 1856,
      "æł¹": 1857,
      "Ġfriend": 1858,
      "çĨ": 1859,
      "Ġchild": 1860,
      "ĠC": 1861,
      "Ġple": 1862,
      "ãģ¾ãģĽ": 1863,
      "æĪĳä»¬çļĦ": 1864,
      "Ġplace": 1865,
      "Ġnight": 1866,
      "ical": 1867,
      "ä¹ĭåīį": 1868,
      "Ġthi": 1869,
      "ower": 1870,
      "ãĤĭãģ¨": 1871,
      "éĽ¨": 1872,
      "ç¿": 1873,
      "Ġpu": 1874,
      "åĮ»": 1875,
      "åŁİ": 1876,
      "çªģ": 1877,
      "ä¸Ģèµ·": 1878,
      "ãģĵãģĵ": 1879,
      "Ġinte": 1880,
      "æĺ¯ä¸įæĺ¯": 1881,
      "that": 1882,
      "å¤«": 1883,
      "éľĢè¦ģ": 1884,
      "Ġsupp": 1885,
      "æ²»": 1886,
      "ãĥ¥": 1887,
      "Ġthing": 1888,
      "åĿĹ": 1889,
      "æ¦": 1890,
      "Ġsomething": 1891,
      "Ġyoung": 1892,
      "ms": 1893,
      "æĦıæĢĿ": 1894,
      "ãģĳãģ¦": 1895,
      "Ġsl": 1896,
      "Ġinst": 1897,
      "atter": 1898,
      "æĭī": 1899,
      "åĲİæĿ¥": 1900,
      "æħ¢": 1901,
      "æľīä¸Ģ": 1902,
      "les": 1903,
      "Ġchan": 1904,
      "å®¢": 1905,
      "ï¼ĸ": 1906,
      "åĨµ": 1907,
      "ĠS": 1908,
      "ç¬ĳ": 1909,
      "ãĥ»": 1910,
      "ew": 1911,
      "Ġgen": 1912,
      "ãģĿãģĹãģ¦": 1913,
      "med": 1914,
      "ä»ĸå°±": 1915,
      "Ġface": 1916,
      "èİ": 1917,
      "è¯Ĩ": 1918,
      "lt": 1919,
      "çħ§": 1920,
      "Ġanother": 1921,
      "Ġever": 1922,
      "æģ¯": 1923,
      "çķĻ": 1924,
      "Ġdist": 1925,
      "ãĤģãģ¦": 1926,
      "åı¯æĺ¯": 1927,
      "è¿Ļæł·çļĦ": 1928,
      "row": 1929,
      "Ġnor": 1930,
      "ks": 1931,
      "Ġyears": 1932,
      "Ġwhile": 1933,
      "æĸ¯": 1934,
      "Ġnothing": 1935,
      "åķĨ": 1936,
      "å®Ł": 1937,
      "ãģ£ãģ": 1938,
      "Ġfind": 1939,
      "å¸Į": 1940,
      "Ġpa": 1941,
      "ãĥĨ": 1942,
      "ways": 1943,
      "æł¡": 1944,
      "ãģ£ãģ¦ãģĦãģĨ": 1945,
      "ãģĵãĤį": 1946,
      "ä½łçľĭ": 1947,
      "æĶ¯": 1948,
      "éķ·": 1949,
      "è¾¾": 1950,
      "åı¥": 1951,
      "Ġheart": 1952,
      "å¼ķ": 1953,
      "å¯¹åĲ§": 1954,
      "Ġset": 1955,
      "åħ³ç³»": 1956,
      "ãĥĳ": 1957,
      "ertain": 1958,
      "æĢķ": 1959,
      "Ġsaw": 1960,
      "è§Ĩ": 1961,
      "Ġnat": 1962,
      "æ§": 1963,
      "Ġreally": 1964,
      "æĸŃ": 1965,
      "è¯ī": 1966,
      "æĺŁ": 1967,
      "sel": 1968,
      "me": 1969,
      "èĳ": 1970,
      "ract": 1971,
      "ãģªãģı": 1972,
      "Ġatt": 1973,
      "ince": 1974,
      "å¤ľ": 1975,
      "è®¡": 1976,
      "è§Ĵ": 1977,
      "ss": 1978,
      "è¿ľ": 1979,
      "ãģĸ": 1980,
      "Ġgi": 1981,
      "ning": 1982,
      "ä¹Łä¸į": 1983,
      "æĢģ": 1984,
      "Ġonce": 1985,
      "Ġfather": 1986,
      "fect": 1987,
      "éĺŁ": 1988,
      "Ġyet": 1989,
      "èĲ½": 1990,
      "ãĥ¼ãĥ«": 1991,
      "ĠA": 1992,
      "ä»ĸæĺ¯": 1993,
      "ãģĵãģ¡ãĤī": 1994,
      "ãģķãģĦ": 1995,
      "éĢł": 1996,
      "ä¾¿": 1997,
      "Ġmind": 1998,
      "not": 1999,
      "å§Ĳ": 2000,
      "æĩ": 2001,
      "Ġgive": 2002,
      "Ġfeel": 2003,
      "ual": 2004,
      "èĭ±": 2005,
      "ä½łè¦ģ": 2006,
      "åı¦": 2007,
      "land": 2008,
      "ç§ĳ": 2009,
      "èĽ": 2010,
      "Ġlight": 2011,
      "Ġfour": 2012,
      "å©ļ": 2013,
      "éĩİ": 2014,
      "ãĤĬãģ¾ãģĹãģŁ": 2015,
      "æīĢæľī": 2016,
      "å¯¼": 2017,
      "å±ķ": 2018,
      "å·Ŀ": 2019,
      "Ġsub": 2020,
      "ared": 2021,
      "æ¡Ī": 2022,
      "æĪı": 2023,
      "çļĦéĤ£ä¸ª": 2024,
      "ool": 2025,
      "ãģĦãģ¾ãģĹãģŁ": 2026,
      "vers": 2027,
      "èĮ": 2028,
      "Ġthough": 2029,
      "Ġeng": 2030,
      "äºĮåįģ": 2031,
      "ãĤ£": 2032,
      "çķª": 2033,
      "å£«": 2034,
      "ject": 2035,
      "æĪ¦": 2036,
      "Ġmom": 2037,
      "èĢģå¸Ī": 2038,
      "Ġwar": 2039,
      "ä¹ī": 2040,
      "å¡": 2041,
      "Ġsur": 2042,
      "å½ĵä¸Ń": 2043,
      "ãģŁãģ¡": 2044,
      "æĬĢ": 2045,
      "ãĥ¼ãĥĪ": 2046,
      "åĻ": 2047,
      "ãģ¸": 2048,
      "çļĦä¸Ģ": 2049,
      "ret": 2050,
      "éĩįè¦ģ": 2051,
      "åĩĨ": 2052,
      "Ġalways": 2053,
      "è©±": 2054,
      "av": 2055,
      "ãģ§ãģĻãģĭ": 2056,
      "ents": 2057,
      "ting": 2058,
      "Ġleft": 2059,
      "åħĭ": 2060,
      "ï¼Ĺ": 2061,
      "åİĨ": 2062,
      "ording": 2063,
      "æĸĻ": 2064,
      "è¶ħ": 2065,
      "cess": 2066,
      "åħ¬åı¸": 2067,
      "éĻħ": 2068,
      "ace": 2069,
      "ãģĲ": 2070,
      "ial": 2071,
      "è¶³": 2072,
      "ç»Ń": 2073,
      "ä¸ĭæĿ¥": 2074,
      "she": 2075,
      "éĤ£äºĽ": 2076,
      "Ġsix": 2077,
      "ãĥĭ": 2078,
      "éħĴ": 2079,
      "ently": 2080,
      "ç¤º": 2081,
      "ä»·": 2082,
      "dd": 2083,
      "ined": 2084,
      "ï¼ĺ": 2085,
      "æİ¨": 2086,
      "ished": 2087,
      "ãģłãģĳ": 2088,
      "no": 2089,
      "Ġneed": 2090,
      "è°ĥ": 2091,
      "ãĥĬ": 2092,
      "è¯Ń": 2093,
      "æľĿ": 2094,
      "çĸĳ": 2095,
      "åĨ³": 2096,
      "éĸ¢": 2097,
      "ç²¾": 2098,
      "ä¸ĵ": 2099,
      "ãģĻãģĶ": 2100,
      "å®ĺ": 2101,
      "Ġunt": 2102,
      "gg": 2103,
      "æĭ¬": 2104,
      "Ġhel": 2105,
      "rest": 2106,
      "ild": 2107,
      "Ġtook": 2108,
      "æ¦Ĥ": 2109,
      "ä»ĺ": 2110,
      "ä¸ªäºº": 2111,
      "æĺĵ": 2112,
      "åıĬ": 2113,
      "ç»Ł": 2114,
      "Ġwa": 2115,
      "èģĶ": 2116,
      "æĻ®": 2117,
      "Ġdoes": 2118,
      "vel": 2119,
      "æĿ¥è¯´": 2120,
      "çı¾": 2121,
      "æķħäºĭ": 2122,
      "Ġmon": 2123,
      "der": 2124,
      "çº¿": 2125,
      "è¿ŀ": 2126,
      "of": 2127,
      "åıĤ": 2128,
      "Ġmin": 2129,
      "ãĥī": 2130,
      "Ġagainst": 2131,
      "åħļ": 2132,
      "Ġposs": 2133,
      "xt": 2134,
      "æĺ¯åĲ§": 2135,
      "ãģĺãĤĥãģªãģĦ": 2136,
      "rent": 2137,
      "Ġreg": 2138,
      "å¸ĮæľĽ": 2139,
      "è½¬": 2140,
      "Ġsou": 2141,
      "ãĥĥãĥĪ": 2142,
      "è¿ĻéĩĮ": 2143,
      "ãģ¾ãģĽãĤĵ": 2144,
      "èĤ¯": 2145,
      "Ġfollow": 2146,
      "ãĥĥãĤ¯": 2147,
      "è½»": 2148,
      "Ġhome": 2149,
      "éŃ": 2150,
      "ner": 2151,
      "Ġlooked": 2152,
      "they": 2153,
      "å¯Ł": 2154,
      "ited": 2155,
      "æĪĳä¹Ł": 2156,
      "å³": 2157,
      "è¿İ": 2158,
      "Ġshow": 2159,
      "å²ģ": 2160,
      "ãģłãģ£ãģŁ": 2161,
      "enty": 2162,
      "è¿Ĳ": 2163,
      "pped": 2164,
      "æľīçĤ¹": 2165,
      "éĥ¨åĪĨ": 2166,
      "éĸĭ": 2167,
      "äºĨä¸Ģä¸ª": 2168,
      "ãĥ³ãĥĪ": 2169,
      "æ¸©": 2170,
      "ï¼Ļ": 2171,
      "ually": 2172,
      "Ġwhy": 2173,
      "ox": 2174,
      "blic": 2175,
      "ãģ®ãģĭ": 2176,
      "å°±ä¼ļ": 2177,
      "Ġsw": 2178,
      "ãĤ¨": 2179,
      "Ġking": 2180,
      "Ġans": 2181,
      "Ġbre": 2182,
      "ãģ«ãĤĪ": 2183,
      "å¤į": 2184,
      "å¥½äºĨ": 2185,
      "Ġappe": 2186,
      "Ġroom": 2187,
      "åĮħæĭ¬": 2188,
      "éĻ¤": 2189,
      "Ġdisc": 2190,
      "cept": 2191,
      "æŃ¢": 2192,
      "Ġche": 2193,
      "æľª": 2194,
      "ãģ£ãģ¦ãģĦãĤĭ": 2195,
      "æĴŃ": 2196,
      "Ġcle": 2197,
      "éĺ¿": 2198,
      "Ġeight": 2199,
      "ãģ£ãģ±": 2200,
      "whi": 2201,
      "åŀĭ": 2202,
      "æľ¯": 2203,
      "ten": 2204,
      "iness": 2205,
      "ãģ®ãģĮ": 2206,
      "åĬ¡": 2207,
      "å±Ģ": 2208,
      "Ġread": 2209,
      "è®¸": 2210,
      "ile": 2211,
      "ãģ¨ãģª": 2212,
      "Ġexp": 2213,
      "ãģ¨æĢĿãģĦãģ¾ãģĻ": 2214,
      "ãģ³": 2215,
      "Ġdec": 2216,
      "Ġinter": 2217,
      "åĭĿ": 2218,
      "åºľ": 2219,
      "cy": 2220,
      "Ġfew": 2221,
      "ä»ĬæĹ¥": 2222,
      "ãģ«ãĤĤ": 2223,
      "åĬŁ": 2224,
      "Ġbelie": 2225,
      "çº¢": 2226,
      "ered": 2227,
      "Ġpoint": 2228,
      "åĳĬè¯ī": 2229,
      "Ġass": 2230,
      "most": 2231,
      "é¦Ļ": 2232,
      "rist": 2233,
      "ä½İ": 2234,
      "ãģ¨ãģĵãĤį": 2235,
      "Ġvo": 2236,
      "Ġdone": 2237,
      "ä¾ĭ": 2238,
      "åıªæĺ¯": 2239,
      "ãĥŁ": 2240,
      "å¼·": 2241,
      "ç½®": 2242,
      "æŃ¥": 2243,
      "Ġeach": 2244,
      "é»ĳ": 2245,
      "rew": 2246,
      "du": 2247,
      "Ġrest": 2248,
      "ãĤº": 2249,
      "Ġvis": 2250,
      "ins": 2251,
      "ä¸ºäºĨ": 2252,
      "å¤ĩ": 2253,
      "ched": 2254,
      "there": 2255,
      "ock": 2256,
      "åŃĺ": 2257,
      "Ġconf": 2258,
      "æį®": 2259,
      "åĢĴ": 2260,
      "Ġter": 2261,
      "åĬ©": 2262,
      "ãģĮãģĤãĤĭ": 2263,
      "Ġgener": 2264,
      "å¤ī": 2265,
      "Ġtold": 2266,
      "Ġinc": 2267,
      "äºĭåĦ¿": 2268,
      "ç¦ı": 2269,
      "irl": 2270,
      "Ġhum": 2271,
      "ates": 2272,
      "ndred": 2273,
      "è¯»": 2274,
      "ween": 2275,
      "Ġheard": 2276,
      "æľ¨": 2277,
      "ç¬¬äºĮ": 2278,
      "ris": 2279,
      "Ġmoment": 2280,
      "æĦ¿": 2281,
      "è³": 2282,
      "æĪĳæĥ³": 2283,
      "å¾·": 2284,
      "ãĥ¼ãĤ¹": 2285,
      "Ġcare": 2286,
      "æİī": 2287,
      "è·ĳ": 2288,
      "ãģŁãĤģ": 2289,
      "Ġsat": 2290,
      "ãģįãģ¾ãģĻ": 2291,
      "ãģĮãģĤ": 2292,
      "Ġhundred": 2293,
      "å¥ĩ": 2294,
      "Ġmother": 2295,
      "uth": 2296,
      "éħį": 2297,
      "ross": 2298,
      "een": 2299,
      "Ġknew": 2300,
      "è¯ģ": 2301,
      "é¾": 2302,
      "è®¾": 2303,
      "æĥħåĨµ": 2304,
      "æ¿": 2305,
      "å¸ĥ": 2306,
      "æ»¡": 2307,
      "Ġtalk": 2308,
      "åİ»äºĨ": 2309,
      "Ġins": 2310,
      "Ġseemed": 2311,
      "Ġmean": 2312,
      "èĭ¦": 2313,
      "Ġasked": 2314,
      "å¯¹äºİ": 2315,
      "Ġma": 2316,
      "æĪĸèĢħæĺ¯": 2317,
      "åĽ½å®¶": 2318,
      "Ġcalled": 2319,
      "Ġwind": 2320,
      "åĪĽ": 2321,
      "æ¥Ń": 2322,
      "äºī": 2323,
      "Ġtri": 2324,
      "æĢ¥": 2325,
      "ular": 2326,
      "ãģªãĤĵ": 2327,
      "æ±º": 2328,
      "è°Ī": 2329,
      "Ġcertain": 2330,
      "Ġside": 2331,
      "Ġbetter": 2332,
      "ä¹ħ": 2333,
      "ãģıãģł": 2334,
      "ict": 2335,
      "èĤī": 2336,
      "èĥĮ": 2337,
      "Ġthir": 2338,
      "Ġbetween": 2339,
      "åĸĿ": 2340,
      "aught": 2341,
      "ating": 2342,
      "é¢Ĩ": 2343,
      "ason": 2344,
      "åı²": 2345,
      "Ġhard": 2346,
      "ĠP": 2347,
      "Ġquest": 2348,
      "åľŁ": 2349,
      "Ġname": 2350,
      "Ġhands": 2351,
      "hip": 2352,
      "day": 2353,
      "pter": 2354,
      "Ġdoor": 2355,
      "åħ·": 2356,
      "½çĦ¶": 2357,
      "Ġadd": 2358,
      "åĪļæīį": 2359,
      "ank": 2360,
      "éĻį": 2361,
      "my": 2362,
      "Ġmiss": 2363,
      "Ġgirl": 2364,
      "ãĥĵ": 2365,
      "äººå®¶": 2366,
      "Ġcourse": 2367,
      "Ġbri": 2368,
      "mer": 2369,
      "ãĥı": 2370,
      "éģ¸æīĭ": 2371,
      "ãĥ§": 2372,
      "now": 2373,
      "ted": 2374,
      "éº": 2375,
      "ãģ«ãģ¤": 2376,
      "çľĮ": 2377,
      "ained": 2378,
      "its": 2379,
      "ç»Ļä½ł": 2380,
      "è¿½": 2381,
      "ĠB": 2382,
      "å°Ķ": 2383,
      "èĤ²": 2384,
      "æ©": 2385,
      "åĻ¨": 2386,
      "Ġgra": 2387,
      "Ġuse": 2388,
      "what": 2389,
      "ãģķãĤĮãģ¦": 2390,
      "éļı": 2391,
      "èĹ": 2392,
      "Ġpublic": 2393,
      "æŀĹ": 2394,
      "ä¸įå¥½": 2395,
      "åı¤": 2396,
      "çĿ¡": 2397,
      "Ġwater": 2398,
      "æĭį": 2399,
      "ç©¶": 2400,
      "ãģ¶": 2401,
      "Ġfam": 2402,
      "Ġdiffe": 2403,
      "atch": 2404,
      "æĺ¯åľ¨": 2405,
      "ç¤¾ä¼ļ": 2406,
      "Ġwhole": 2407,
      "åį´": 2408,
      "Ġwoman": 2409,
      "è¯ķ": 2410,
      "ãģĹãģ¾": 2411,
      "Ġstart": 2412,
      "Ġseen": 2413,
      "ä¸ĬçļĦ": 2414,
      "Ġsil": 2415,
      "æķ´ä¸ª": 2416,
      "å®Įåħ¨": 2417,
      "ired": 2418,
      "æĿ¥äºĨ": 2419,
      "é¥Ń": 2420,
      "èĤ¯å®ļ": 2421,
      "Ġreturn": 2422,
      "çĶļ": 2423,
      "Ġsoon": 2424,
      "Ġhalf": 2425,
      "ãģĪãĤĭ": 2426,
      "form": 2427,
      "è£ħ": 2428,
      "ail": 2429,
      "åī§": 2430,
      "Ġtwenty": 2431,
      "åįİ": 2432,
      "éĢŁ": 2433,
      "ãģ£ãģ¦ãĤĭ": 2434,
      "Ġhour": 2435,
      "æĿ¥çļĦ": 2436,
      "Ġnear": 2437,
      "Ġfive": 2438,
      "this": 2439,
      "éĺ²": 2440,
      "é¸": 2441,
      "åįĪ": 2442,
      "ãģıãģª": 2443,
      "åĿĲ": 2444,
      "Ġdr": 2445,
      "æĿİ": 2446,
      "ç»ĻæĪĳ": 2447,
      "up": 2448,
      "è´¹": 2449,
      "ç®Ģ": 2450,
      "ãĥ¼ãĥł": 2451,
      "Ġhigh": 2452,
      "Ġel": 2453,
      "Ġenough": 2454,
      "Ġkeep": 2455,
      "gether": 2456,
      "çĶµå½±": 2457,
      "ç»Ī": 2458,
      "çµĲ": 2459,
      "å®Ŀ": 2460,
      "ç´§": 2461,
      "Ġcol": 2462,
      "ãģĹãģ¦ãģĦãĤĭ": 2463,
      "Ġsure": 2464,
      "Ġev": 2465,
      "Ġboth": 2466,
      "å·ŀ": 2467,
      "Ġboy": 2468,
      "act": 2469,
      "å¢ĥ": 2470,
      "ç«Ļ": 2471,
      "ĠG": 2472,
      "Ġbro": 2473,
      "selves": 2474,
      "ully": 2475,
      "çŃĶ": 2476,
      "Ġste": 2477,
      "åľ¨è¿Ļä¸ª": 2478,
      "ense": 2479,
      "æĭľ": 2480,
      "ä¼ļæľī": 2481,
      "çŁ³": 2482,
      "ither": 2483,
      "Ġperson": 2484,
      "æ¤": 2485,
      "Ġquite": 2486,
      "çĭ¬": 2487,
      "ures": 2488,
      "å±ĭ": 2489,
      "æĿĳ": 2490,
      "çıŃ": 2491,
      "æĺ¯ä»Ģä¹Ī": 2492,
      "Ġsy": 2493,
      "Ġpur": 2494,
      "æĿĥ": 2495,
      "als": 2496,
      "ute": 2497,
      "oy": 2498,
      "dy": 2499,
      "åĪ»": 2500,
      "Ġfact": 2501,
      "uck": 2502,
      "osed": 2503,
      "æĿ¿": 2504,
      "Ġdra": 2505,
      "åĢ¼": 2506,
      "Ġreal": 2507,
      "ä»½": 2508,
      "Ġbus": 2509,
      "åł±": 2510,
      "ãģ¡ãĤĥãĤĵ": 2511,
      "ãĥĩ": 2512,
      "by": 2513,
      "Ġpower": 2514,
      "ãģıãģłãģķãģĦ": 2515,
      "ä¼¼": 2516,
      "æĻ¯": 2517,
      "Ġtre": 2518,
      "aster": 2519,
      "éĿĴ": 2520,
      "ãģ»ãģ©": 2521,
      "æĸ¹éĿ¢": 2522,
      "äºĪ": 2523,
      "é£ŀ": 2524,
      "Ġlar": 2525,
      "Ġland": 2526,
      "è®®": 2527,
      "æĢª": 2528,
      "ãģĹãģĭ": 2529,
      "ãģĳãĤĮ": 2530,
      "ä½łæĺ¯": 2531,
      "Ġchar": 2532,
      "hom": 2533,
      "ream": 2534,
      "ãģįãģŁ": 2535,
      "Ġhelp": 2536,
      "Ġhaving": 2537,
      "iet": 2538,
      "Ġdays": 2539,
      "Ġtak": 2540,
      "Ġstand": 2541,
      "ç±³": 2542,
      "aut": 2543,
      "Ġed": 2544,
      "çĥŃ": 2545,
      "äº«": 2546,
      "Ġsim": 2547,
      "then": 2548,
      "Ġsk": 2549,
      "Ġexc": 2550,
      "æŁĲ": 2551,
      "è»Ĭ": 2552,
      "Ġsmall": 2553,
      "åŁºæľ¬": 2554,
      "è¦ĭãģ¦": 2555,
      "ä¼¤": 2556,
      "çĽ´æİ¥": 2557,
      "å¼Ł": 2558,
      "çłĶ": 2559,
      "å¤ļçļĦ": 2560,
      "æŁ¥": 2561,
      "ç¾¤": 2562,
      "æ¨¡": 2563,
      "ä»ĭ": 2564,
      "Ġocc": 2565,
      "Ġunderst": 2566,
      "ãĤīãģĦ": 2567,
      "ä¸įè¿ĩ": 2568,
      "åĽ¢": 2569,
      "è´¨": 2570,
      "ãģ©ãĤĤ": 2571,
      "åħĪçĶŁ": 2572,
      "å¯¹ä¸į": 2573,
      "ãĥ¯": 2574,
      "Ġmatter": 2575,
      "èĻ½çĦ¶": 2576,
      "çĶļèĩ³": 2577,
      "çļĦéĤ£": 2578,
      "ãĤĪãģĨãģ«": 2579,
      "Ġopen": 2580,
      "åĵį": 2581,
      "æĹı": 2582,
      "ç¡®å®ŀ": 2583,
      "åįĸ": 2584,
      "æłĩ": 2585,
      "ãĤĢ": 2586,
      "æĿĢ": 2587,
      "æİĴ": 2588,
      "Ġbla": 2589,
      "ãģ¾ãģŁ": 2590,
      "åį°": 2591,
      "æĦŁãģĺ": 2592,
      "èĤ¡": 2593,
      "Ġpol": 2594,
      "Ġref": 2595,
      "Ġbest": 2596,
      "äºĮéĽ¶": 2597,
      "åĪ¤": 2598,
      "æĵ": 2599,
      "Ġnext": 2600,
      "æĪĳåľ¨": 2601,
      "å¦Īå¦Ī": 2602,
      "æĭħ": 2603,
      "åģľ": 2604,
      "ç¯": 2605,
      "ãĥĸ": 2606,
      "çł´": 2607,
      "ãģĦãģı": 2608,
      "Ġcr": 2609,
      "æĪĳä¸į": 2610,
      "ts": 2611,
      "Ġmorn": 2612,
      "ousand": 2613,
      "åı¦å¤ĸ": 2614,
      "åĳ¼": 2615,
      "åģĩ": 2616,
      "æĩĤ": 2617,
      "ned": 2618,
      "ering": 2619,
      "çº§": 2620,
      "è®¤ä¸º": 2621,
      "èĪ¬": 2622,
      "æĢİä¹Īæł·": 2623,
      "ãĤĪãģĨãģª": 2624,
      "ï¼ļ": 2625,
      "åħ´": 2626,
      "éģĩ": 2627,
      "æĻĤéĸĵ": 2628,
      "ling": 2629,
      "ãģµ": 2630,
      "ä¾Ľ": 2631,
      "Ġmet": 2632,
      "Ġsent": 2633,
      "ãģİ": 2634,
      "èĦĳ": 2635,
      "well": 2636,
      "ãģ²": 2637,
      "ãģ£ãģ¦ãģĦãģ¾ãģĻ": 2638,
      "ãģĵãģ¨ãģĮ": 2639,
      "ãĤ¹ãĥĪ": 2640,
      "ef": 2641,
      "åıĳçĶŁ": 2642,
      "Ġinf": 2643,
      "è¾¼": 2644,
      "ä¸Ģä¸ªäºº": 2645,
      "ç»Ŀ": 2646,
      "He": 2647,
      "ments": 2648,
      "Ġlord": 2649,
      "Ġnum": 2650,
      "Ġthousand": 2651,
      "Ġhear": 2652,
      "ities": 2653,
      "ãĥĢ": 2654,
      "è¿ĩåİ»": 2655,
      "äºĨåķĬ": 2656,
      "Ġfore": 2657,
      "Ġmrs": 2658,
      "å·´": 2659,
      "Ġwords": 2660,
      "ä»¥åīį": 2661,
      "ä½łä½ł": 2662,
      "ãĥĿ": 2663,
      "oney": 2664,
      "Ġhor": 2665,
      "ãĢħ": 2666,
      "Ġwhite": 2667,
      "çļĦä¸ľè¥¿": 2668,
      "å±ŀ": 2669,
      "air": 2670,
      "å¹¿": 2671,
      "å®¤": 2672,
      "ãĥ³ãĤ°": 2673,
      "Ġyes": 2674,
      "ody": 2675,
      "ont": 2676,
      "ä¿©": 2677,
      "éĢ£": 2678,
      "è§Ħ": 2679,
      "Ġcountry": 2680,
      "çŃĸ": 2681,
      "dden": 2682,
      "åıįæŃ£": 2683,
      "Ġalmost": 2684,
      "unt": 2685,
      "Ġele": 2686,
      "Ġinv": 2687,
      "éĩĮè¾¹": 2688,
      "åĪ«äºº": 2689,
      "Ġfin": 2690,
      "æĺ¯æľī": 2691,
      "Ġcou": 2692,
      "Ġanything": 2693,
      "ton": 2694,
      "ife": 2695,
      "Ġamong": 2696,
      "ãĥķãĤ": 2697,
      "ãģĶãģĸ": 2698,
      "ãģĤãģ¨": 2699,
      "Ġgave": 2700,
      "è°¢è°¢": 2701,
      "çĪ·": 2702,
      "Ġmorning": 2703,
      "Ġplay": 2704,
      "Ġturned": 2705,
      "å¤§åŃ¦": 2706,
      "Ġdou": 2707,
      "Ġless": 2708,
      "son": 2709,
      "ãģķãĤĮãģŁ": 2710,
      "æį¢": 2711,
      "æ¥½": 2712,
      "Ġsir": 2713,
      "ier": 2714,
      "ãĥĶ": 2715,
      "åĨ·": 2716,
      "ãĤ¿ãĥ¼": 2717,
      "Ġinterest": 2718,
      "ç»§": 2719,
      "wards": 2720,
      "ãĤ±": 2721,
      "è¯´çļĦ": 2722,
      "ãģ¨ãģĦ": 2723,
      "Ġwhom": 2724,
      "ç´ł": 2725,
      "éĨ": 2726,
      "ãģ®ä¸Ń": 2727,
      "æĺ¨": 2728,
      "Ġlaw": 2729,
      "æ¢¦": 2730,
      "Ġpleas": 2731,
      "ange": 2732,
      "Ġide": 2733,
      "ably": 2734,
      "å¨ĺ": 2735,
      "åħ»": 2736,
      "æ¹¾": 2737,
      "ately": 2738,
      "ç¢º": 2739,
      "äººãģĮ": 2740,
      "ãĤ»": 2741,
      "ç¥¨": 2742,
      "åĪ°åºķ": 2743,
      "èª¿": 2744,
      "éĥ½ä¸į": 2745,
      "æĶ¿åºľ": 2746,
      "èĩªåĪĨ": 2747,
      "Ġdel": 2748,
      "çŀ": 2749,
      "é¤": 2750,
      "uring": 2751,
      "ãģ§ãģĹãģŁ": 2752,
      "åĩºçİ°": 2753,
      "éªĮ": 2754,
      "cri": 2755,
      "Ġah": 2756,
      "Ġrun": 2757,
      "Ġfelt": 2758,
      "ç»Ħ": 2759,
      "Ġinde": 2760,
      "æĸ¹å¼ı": 2761,
      "æ¿Ģ": 2762,
      "å¹´çļĦ": 2763,
      "ãģĻãģĶãģĦ": 2764,
      "éĻĲ": 2765,
      "Ġdeath": 2766,
      "Ġaround": 2767,
      "ç¤¼": 2768,
      "ãĥľ": 2769,
      "ç»ĵæŀľ": 2770,
      "Ġbar": 2771,
      "Ġbeaut": 2772,
      "Ġart": 2773,
      "æĽ¾": 2774,
      "ãĤĦãģ£ãģ¦": 2775,
      "å¤§æ¦Ĥ": 2776,
      "çĻ»": 2777,
      "Ġbegan": 2778,
      "åĬŀæ³ķ": 2779,
      "amp": 2780,
      "Ġpar": 2781,
      "ç©¿": 2782,
      "è¡£": 2783,
      "Ġuntil": 2784,
      "when": 2785,
      "åĨĨ": 2786,
      "Ġadv": 2787,
      "Ġsince": 2788,
      "Ġserv": 2789,
      "çļĦåķĬ": 2790,
      "åĵ¡": 2791,
      "Ġwond": 2792,
      "Ġtry": 2793,
      "ãĤĦãģ£ãģ±": 2794,
      "æĿĲ": 2795,
      "è¡Ģ": 2796,
      "Ġdet": 2797,
      "ä¹Łæľī": 2798,
      "ibri": 2799,
      "èĦ¸": 2800,
      "Ġpresent": 2801,
      "Ġes": 2802,
      "ãģįãģ¾ãģĹãģŁ": 2803,
      "body": 2804,
      "Ġint": 2805,
      "æĽ²": 2806,
      "äºĴ": 2807,
      "æŃ¦": 2808,
      "æ±Ł": 2809,
      "æĿ¾": 2810,
      "æĪĳè¦ģ": 2811,
      "Ġbook": 2812,
      "ä¼ģ": 2813,
      "æ¸¸æĪı": 2814,
      "ĠT": 2815,
      "Ġdark": 2816,
      "Ġmyself": 2817,
      "çİĩ": 2818,
      "åİĭ": 2819,
      "çļĦäºĭæĥħ": 2820,
      "ä¿®": 2821,
      "å·¦": 2822,
      "çªģçĦ¶": 2823,
      "å´": 2824,
      "çº¦": 2825,
      "ãģĽãģ¦": 2826,
      "Ġtogether": 2827,
      "ä¸ĬéĿ¢": 2828,
      "éĿĻ": 2829,
      "Ġlady": 2830,
      "å¤ļå°ĳ": 2831,
      "ãģķãĤĵãģ®": 2832,
      "oud": 2833,
      "Ġyear": 2834,
      "Ġgre": 2835,
      "ãĥł": 2836,
      "æ´¾": 2837,
      "å®ŀéĻħ": 2838,
      "è¿Ļä»¶": 2839,
      "Vox": 2840,
      "Ġfif": 2841,
      "ised": 2842,
      "Ġvoice": 2843,
      "ibriVox": 2844,
      "å°±å°±": 2845,
      "æĥ³è¦ģ": 2846,
      "ãģĭãĤĬ": 2847,
      "ï¼Ľ": 2848,
      "ãģĵãĤĮãģ¯": 2849,
      "çīĽ": 2850,
      "ãĤĵãģ§ãģĻãģĳãģ©": 2851,
      "ote": 2852,
      "ä½łçŁ¥éģĵ": 2853,
      "é¼": 2854,
      "è¸": 2855,
      "ured": 2856,
      "å½ķ": 2857,
      "ung": 2858,
      "Ġext": 2859,
      "å®Ī": 2860,
      "äºļ": 2861,
      "Ġair": 2862,
      "cha": 2863,
      "æĺ¾": 2864,
      "åĶ±": 2865,
      "çİ¯": 2866,
      "Ġbrought": 2867,
      "Ġcontin": 2868,
      "ä¸Ģæ¬¡": 2869,
      "Ġspir": 2870,
      "Ġcond": 2871,
      "æľĢè¿ĳ": 2872,
      "ãģķãĤĮ": 2873,
      "ention": 2874,
      "å¯Į": 2875,
      "Ġstate": 2876,
      "èıľ": 2877,
      "åľ¨è¿Ļ": 2878,
      "Ġsun": 2879,
      "æ¬¢è¿İ": 2880,
      "çĹĽ": 2881,
      "åįļ": 2882,
      "çĬ¯": 2883,
      "haps": 2884,
      "é¢¨": 2885,
      "ä¸įåĲĮ": 2886,
      "ãģªãģĮ": 2887,
      "å¯Ĩ": 2888,
      "é»Ħ": 2889,
      "Ġblack": 2890,
      "åª": 2891,
      "Ġdom": 2892,
      "å«": 2893,
      "Ġcor": 2894,
      "tle": 2895,
      "Ġsle": 2896,
      "æ½": 2897,
      "åĩłä¸ª": 2898,
      "æ³¢": 2899,
      "ãģĿãĤĵãģª": 2900,
      "æķĳ": 2901,
      "æĿ±äº¬": 2902,
      "iting": 2903,
      "ĠH": 2904,
      "Ġdire": 2905,
      "çļĦè¿Ļç§į": 2906,
      "å³¶": 2907,
      "ãģĹãģı": 2908,
      "Ġmoney": 2909,
      "èµ¶": 2910,
      "ĠLibriVox": 2911,
      "åķ¦": 2912,
      "ï¼½": 2913,
      "Ġcompan": 2914,
      "Ġdifferent": 2915,
      "nded": 2916,
      "cei": 2917,
      "ä¼Ŀ": 2918,
      "Ġbig": 2919,
      "æĻļä¸Ĭ": 2920,
      "éĢļè¿ĩ": 2921,
      "Ġfull": 2922,
      "Ġdep": 2923,
      "åķı": 2924,
      "çĦ¶åĲİåĳ¢": 2925,
      "ï¼»": 2926,
      "Ġten": 2927,
      "ows": 2928,
      "è°ĵ": 2929,
      "ç»Ĩ": 2930,
      "æĶ»": 2931,
      "Ġlot": 2932,
      "Ġpoor": 2933,
      "ãģ§ãģįãĤĭ": 2934,
      "Ġsecond": 2935,
      "æĪĳè·Ł": 2936,
      "æĺ¯ä¸Ģ": 2937,
      "äººãģ®": 2938,
      "æĺ¥": 2939,
      "ãģ«ãģ¤ãģĦãģ¦": 2940,
      "å¿Ĺ": 2941,
      "ãģĿãģĵ": 2942,
      "ä¹İ": 2943,
      "Ġsch": 2944,
      "æŁĵ": 2945,
      "lied": 2946,
      "å°½": 2947,
      "ä»¥ä¸Ĭ": 2948,
      "èģŀ": 2949,
      "éĺ³": 2950,
      "æľīäºº": 2951,
      "çµĦ": 2952,
      "æł·çļĦ": 2953,
      "Ġlear": 2954,
      "Ġru": 2955,
      "ph": 2956,
      "æľīäºĽ": 2957,
      "gr": 2958,
      "ãģĦãĤĦ": 2959,
      "å±ħ": 2960,
      "åı°æ¹¾": 2961,
      "ãģłãģĭãĤī": 2962,
      "Ġfall": 2963,
      "æŀģ": 2964,
      "æģĲ": 2965,
      "ãģĹãģ¦ãģĦãģ¾ãģĻ": 2966,
      "hen": 2967,
      "ãģ¾ãģļ": 2968,
      "ãģ«ãģªãĤĭ": 2969,
      "ãĥĽ": 2970,
      "ç½ª": 2971,
      "ãģķãĤĵãģĮ": 2972,
      "with": 2973,
      "Ġsort": 2974,
      "na": 2975,
      "Ġstood": 2976,
      "Ġce": 2977,
      "åŃ¦æł¡": 2978,
      "Ġhope": 2979,
      "æ¯Ľ": 2980,
      "ãģĹãĤĩãģĨãģĭ": 2981,
      "æľ¬å½ĵ": 2982,
      "ãģ¨ãģĦãģĨãģĵãģ¨ãģ§ãģĻ": 2983,
      "åı³": 2984,
      "æĭ©": 2985,
      "åĪĹ": 2986,
      "çģµ": 2987,
      "éĽª": 2988,
      "where": 2989,
      "åıĺæĪĲ": 2990,
      "æ²¹": 2991,
      "Ġquestion": 2992,
      "Ġchildren": 2993,
      "åıªæľī": 2994,
      "ãĥĥãĥĹ": 2995,
      "çļĦä¸ĢäºĽ": 2996,
      "æĺİçĻ½": 2997,
      "Ġsays": 2998,
      "ãģ¨ãģĨ": 2999,
      "åĽŀæĿ¥": 3000,
      "ific": 3001,
      "ĠD": 3002,
      "Ġswe": 3003,
      "è¯į": 3004,
      "ãĤ¬": 3005,
      "å¥½å¥½": 3006,
      "ä¸ĢèĪ¬": 3007,
      "Ġspo": 3008,
      "å¿ĺ": 3009,
      "å¹¸": 3010,
      "è®°å¾Ĺ": 3011,
      "Ġround": 3012,
      "Ġtaken": 3013,
      "Ġunderstand": 3014,
      "Ġopp": 3015,
      "éĢ²": 3016,
      "å¾ĭ": 3017,
      "Ġaw": 3018,
      "Ġbelieve": 3019,
      "æ®ĭ": 3020,
      "Ġmil": 3021,
      "Ġoh": 3022,
      "fully": 3023,
      "ĠE": 3024,
      "Ġfire": 3025,
      "Ġreason": 3026,
      "Ġrather": 3027,
      "å°±æĺ¯ä½ł": 3028,
      "ger": 3029,
      "éĥ½ä¼ļ": 3030,
      "ä¸¾": 3031,
      "Ġrel": 3032,
      "è¿ĩç¨ĭ": 3033,
      "itu": 3034,
      "ield": 3035,
      "Ġadm": 3036,
      "Ġform": 3037,
      "ken": 3038,
      "è¿Ļä¸ªè¿Ļä¸ª": 3039,
      "å°±ä¸į": 3040,
      "ä¸Ńåħ±": 3041,
      "çľĭçľĭ": 3042,
      "è°·": 3043,
      "ãģĦãģŁãģł": 3044,
      "æ¥ļ": 3045,
      "ãģ¿ãģŁãģĦ": 3046,
      "ä¸īåįģ": 3047,
      "æķ¢": 3048,
      "ĠF": 3049,
      "Ġherself": 3050,
      "åħµ": 3051,
      "çŁŃ": 3052,
      "Ġhowever": 3053,
      "éĿł": 3054,
      "æĬ¤": 3055,
      "é¡»": 3056,
      "Ġstud": 3057,
      "ying": 3058,
      "åıªè¦ģ": 3059,
      "è¿Ľè¡Į": 3060,
      "Ġlay": 3061,
      "èĩ´": 3062,
      "iew": 3063,
      "å¤§ãģį": 3064,
      "æ¸¯": 3065,
      "åıĮ": 3066,
      "çĹĩ": 3067,
      "used": 3068,
      "æĺ¯æĪĳ": 3069,
      "aint": 3070,
      "åĽ¾": 3071,
      "çłĶç©¶": 3072,
      "æľīä»Ģä¹Ī": 3073,
      "Ġspeak": 3074,
      "èĸ": 3075,
      "æ°¸": 3076,
      "Ġhon": 3077,
      "äº®": 3078,
      "éŁ³ä¹Ĳ": 3079,
      "ãģĳãĤĭ": 3080,
      "ãĤīãĤĮ": 3081,
      "Ġremem": 3082,
      "ãģĿãģĨãģ§ãģĻ": 3083,
      "Ġtrue": 3084,
      "Ġothers": 3085,
      "æºĲ": 3086,
      "Ġthou": 3087,
      "å±Ĥ": 3088,
      "Ġlarge": 3089,
      "æĪ·": 3090,
      "Ġcase": 3091,
      "æİ§": 3092,
      "æ¥¼": 3093,
      "é¡ĺ": 3094,
      "ç½Ĺ": 3095,
      "ets": 3096,
      "è«": 3097,
      "æľīæ²¡æľī": 3098,
      "Ġthemselves": 3099,
      "Ġdidn": 3100,
      "å°±æĺ¯æĪĳ": 3101,
      "æīĢè°ĵ": 3102,
      "Ġlist": 3103,
      "ä¸įäºĨ": 3104,
      "hn": 3105,
      "king": 3106,
      "Ġcannot": 3107,
      "Ġchrist": 3108,
      "ä¾Ŀ": 3109,
      "å¥³æĢ§": 3110,
      "ale": 3111,
      "cial": 3112,
      "çļĨ": 3113,
      "how": 3114,
      "vern": 3115,
      "è¯Ħ": 3116,
      "Ġson": 3117,
      "Ġgiven": 3118,
      "ines": 3119,
      "az": 3120,
      "Ġbel": 3121,
      "teen": 3122,
      "Ġsign": 3123,
      "ä»Ĭå¹´": 3124,
      "éģķ": 3125,
      "ãĥ¼ãĥī": 3126,
      "Ġalong": 3127,
      "Ġdear": 3128,
      "å°±è¯´": 3129,
      "çīĪ": 3130,
      "Ġletter": 3131,
      "ãĤ·ãĥ§": 3132,
      "åİŁåĽł": 3133,
      "Ġlooking": 3134,
      "åĩ»": 3135,
      "ä¸įåĪ°": 3136,
      "é¡Į": 3137,
      "éĢĤ": 3138,
      "è®¨": 3139,
      "ants": 3140,
      "åĽłä¸ºæĪĳ": 3141,
      "Ġunc": 3142,
      "éĢīæĭ©": 3143,
      "åĲĽ": 3144,
      "éĤ£ä½ł": 3145,
      "ä¸¥": 3146,
      "which": 3147,
      "ç«Ł": 3148,
      "èŃ¦å¯Ł": 3149,
      "Ġsudden": 3150,
      "æµİ": 3151,
      "Ġsing": 3152,
      "Ġused": 3153,
      "èªį": 3154,
      "iled": 3155,
      "Ġfeet": 3156,
      "åºŃ": 3157,
      "å½±åĵį": 3158,
      "Ġgone": 3159,
      "æĺł": 3160,
      "ressed": 3161,
      "Ġsound": 3162,
      "åĪļåĪļ": 3163,
      "Ġpat": 3164,
      "ç»´": 3165,
      "ized": 3166,
      "åĩºãģ¦": 3167,
      "åº§": 3168,
      "Ġhold": 3169,
      "fort": 3170,
      "ãĥį": 3171,
      "çļĩ": 3172,
      "åŁŁ": 3173,
      "ãģªãģĭãģ£ãģŁ": 3174,
      "ç»§ç»Ń": 3175,
      "å®¹æĺĵ": 3176,
      "Ġlau": 3177,
      "ãģ¾ãģł": 3178,
      "ä¹ĭéĹ´": 3179,
      "Ġfriends": 3180,
      "å¦¹": 3181,
      "Ġbody": 3182,
      "ä»»ä½ķ": 3183,
      "Ġexpl": 3184,
      "ident": 3185,
      "åģ¥": 3186,
      "ility": 3187,
      "Ġbra": 3188,
      "ip": 3189,
      "ç«ł": 3190,
      "Ġprom": 3191,
      "ĠO": 3192,
      "Ġsho": 3193,
      "Ġcur": 3194,
      "ãĥ©ãĤ¤ãĥ": 3195,
      "ided": 3196,
      "ä½ķãģĭ": 3197,
      "ãģŀ": 3198,
      "é£Łãģ¹": 3199,
      "ä¹±": 3200,
      "Ġorder": 3201,
      "Ġearth": 3202,
      "åį±": 3203,
      "æĹħ": 3204,
      "aring": 3205,
      "ä»ĸåľ¨": 3206,
      "é¾Ļ": 3207,
      "å¿ħé¡»": 3208,
      "wer": 3209,
      "åĪĨäº«": 3210,
      "éĻ©": 3211,
      "ä¸»è¦ģ": 3212,
      "Ġwee": 3213,
      "Ġstrong": 3214,
      "æ§ĺ": 3215,
      "ains": 3216,
      "è¿ĩæĿ¥": 3217,
      "ĠR": 3218,
      "ches": 3219,
      "çľŁçļĦæĺ¯": 3220,
      "éĥ½æľī": 3221,
      "é¬": 3222,
      "Ġgent": 3223,
      "åºĥ": 3224,
      "Ġbit": 3225,
      "Ġwife": 3226,
      "Ġtill": 3227,
      "å¤ı": 3228,
      "ä½ľä¸º": 3229,
      "ution": 3230,
      "ãĥ³ãĥī": 3231,
      "ç»ĥ": 3232,
      "åį¡": 3233,
      "æ¯ıå¤©": 3234,
      "é²": 3235,
      "ãģ®ãģĬ": 3236,
      "Ġmem": 3237,
      "Ġeas": 3238,
      "bed": 3239,
      "It": 3240,
      "ãĤĮãģ°": 3241,
      "tem": 3242,
      "èŃ°": 3243,
      "æĲŀ": 3244,
      "èį¯": 3245,
      "ern": 3246,
      "ience": 3247,
      "çĲĨè§£": 3248,
      "Ġcent": 3249,
      "ãģĤãģ£": 3250,
      "ãģ«ãģªãģ£ãģ¦": 3251,
      "ane": 3252,
      "ached": 3253,
      "Ġlive": 3254,
      "æ©Ł": 3255,
      "è¯¾": 3256,
      "Ġoften": 3257,
      "Ġdead": 3258,
      "åĪĻ": 3259,
      "è¡Ĺ": 3260,
      "æ´Ĺ": 3261,
      "ãģĤãĤĬãģ¾ãģĻ": 3262,
      "ä½łä¸į": 3263,
      "åĨ²": 3264,
      "Ġsoul": 3265,
      "Ġbed": 3266,
      "æīĢä»¥è¯´": 3267,
      "Ġperhaps": 3268,
      "ä¼ĳ": 3269,
      "çŃīçŃī": 3270,
      "ä¸ĬãģĮ": 3271,
      "ãģĿãģĨãģĦãģĨ": 3272,
      "Ġrecording": 3273,
      "åķ¥": 3274,
      "è¶£": 3275,
      "åĲĦç§į": 3276,
      "åĥķ": 3277,
      "çĽ¸ä¿¡": 3278,
      "alth": 3279,
      "fic": 3280,
      "çļ®": 3281,
      "ä¸ĬãģĴ": 3282,
      "ãĤ¹ãĤ¿": 3283,
      "Ġexper": 3284,
      "bt": 3285,
      "å¥¶": 3286,
      "é¬¼": 3287,
      "Ġtimes": 3288,
      "cious": 3289,
      "èģĮ": 3290,
      "ç»Ļä»ĸ": 3291,
      "ctions": 3292,
      "èĦļ": 3293,
      "æī¿": 3294,
      "ãĤĦãģ£ãģ±ãĤĬ": 3295,
      "æ²³": 3296,
      "åĪĨä¹ĭ": 3297,
      "åľ¨éĤ£": 3298,
      "å°±åĥı": 3299,
      "æ³¨æĦı": 3300,
      "çĵ": 3301,
      "å¾Īå¤ļäºº": 3302,
      "ç®Ģåįķ": 3303,
      "Ġprop": 3304,
      "äº¡": 3305,
      "ready": 3306,
      "åĩºåİ»": 3307,
      "Ġtem": 3308,
      "Ġdri": 3309,
      "ä»ĬåĽŀ": 3310,
      "hind": 3311,
      "è´Ł": 3312,
      "Ġclose": 3313,
      "åĬ¿": 3314,
      "ser": 3315,
      "éĢĢ": 3316,
      "åĮĹäº¬": 3317,
      "èĴ": 3318,
      "Ġben": 3319,
      "é¡ĺãģĦ": 3320,
      "åı¥è¯Ŀ": 3321,
      "ative": 3322,
      "å°±æĺ¯ä»ĸ": 3323,
      "è®©æĪĳ": 3324,
      "æĺ¯ä¸į": 3325,
      "è·³": 3326,
      "ãģĳãĤĮãģ©ãĤĤ": 3327,
      "Ġable": 3328,
      "å®ĮäºĨ": 3329,
      "ä»£è¡¨": 3330,
      "æĮī": 3331,
      "æģĭ": 3332,
      "Ġhuman": 3333,
      "ĠJ": 3334,
      "éĴŁ": 3335,
      "ãģĬãģĦ": 3336,
      "åį³": 3337,
      "ç§»": 3338,
      "Ġshi": 3339,
      "çļĦå°ı": 3340,
      "ç§°": 3341,
      "èī¯": 3342,
      "èĲ¥": 3343,
      "Ġprof": 3344,
      "èĪŀ": 3345,
      "ç¶ļãģĦãģ¦": 3346,
      "éĹ»": 3347,
      "ety": 3348,
      "ister": 3349,
      "èīº": 3350,
      "Ġcoming": 3351,
      "åº·": 3352,
      "çļĦéĹ®é¢ĺ": 3353,
      "ãĢĪ": 3354,
      "ä»ħ": 3355,
      "Ġnature": 3356,
      "uri": 3357,
      "Ġchapter": 3358,
      "çľģ": 3359,
      "Ġspirit": 3360,
      "åĲ¸": 3361,
      "Ġmer": 3362,
      "ãĤĤãģĹ": 3363,
      "Ġdoing": 3364,
      "read": 3365,
      "Ġconst": 3366,
      "Ġwhose": 3367,
      "åıĸãĤĬ": 3368,
      "osition": 3369,
      "è´£": 3370,
      "Ġlead": 3371,
      "ç¿»": 3372,
      "ceed": 3373,
      "æķĪ": 3374,
      "mon": 3375,
      "ãģįãģ¦": 3376,
      "ĠçļĦ": 3377,
      "æ¯ķ": 3378,
      "Ġalone": 3379,
      "ãģĤãĤĬãģĮ": 3380,
      "Ġcoll": 3381,
      "lish": 3382,
      "æŃ³": 3383,
      "Ġmeet": 3384,
      "Ġmeans": 3385,
      "ued": 3386,
      "ç´¢": 3387,
      "èĭ¥": 3388,
      "ãĥĦ": 3389,
      "Ġshort": 3390,
      "Ġcity": 3391,
      "Ġabs": 3392,
      "ãģķãĤĵãģ¯": 3393,
      "ãĢī": 3394,
      "Ġdev": 3395,
      "ages": 3396,
      "ä»ĸä»¬çļĦ": 3397,
      "åĽ´": 3398,
      "Ġbehind": 3399,
      "Ġthy": 3400,
      "Ġtrans": 3401,
      "ãģĤãģ®": 3402,
      "èĽ®": 3403,
      "å¦Ĥæŀľä½ł": 3404,
      "äºĭä»¶": 3405,
      "Ġbring": 3406,
      "å®ŀéĻħä¸Ĭ": 3407,
      "å¿Ļ": 3408,
      "ring": 3409,
      "éĽ»": 3410,
      "ãģĬé¡ĺãģĦ": 3411,
      "ãĤ®": 3412,
      "ãĥ¢": 3413,
      "éĨĴ": 3414,
      "Ġpassed": 3415,
      "ĠW": 3416,
      "åĨħå®¹": 3417,
      "Ġleast": 3418,
      "æľīä¸ĢäºĽ": 3419,
      "åħ¨éĥ¨": 3420,
      "ãģľ": 3421,
      "Ġalready": 3422,
      "Ġcapt": 3423,
      "ãĥ³ãĤ¹": 3424,
      "ãĥĻ": 3425,
      "Ġnumber": 3426,
      "Ġdeep": 3427,
      "è·ŁæĪĳ": 3428,
      "å¿ħè¦ģ": 3429,
      "Ġprodu": 3430,
      "men": 3431,
      "éģĭ": 3432,
      "eric": 3433,
      "ians": 3434,
      "Ġred": 3435,
      "Ġwithin": 3436,
      "æĵį": 3437,
      "ç»ıæµİ": 3438,
      "è¿Ļæł·åŃĲ": 3439,
      "ider": 3440,
      "åħ³æ³¨": 3441,
      "Ġill": 3442,
      "Ġindeed": 3443,
      "çĨŁ": 3444,
      "Ġleave": 3445,
      "ron": 3446,
      "Ġimport": 3447,
      "ãĤıãģĳ": 3448,
      "Ġmid": 3449,
      "æĮĳ": 3450,
      "gth": 3451,
      "Ġsuff": 3452,
      "laim": 3453,
      "ãĥªãĥ¼": 3454,
      "Ġground": 3455,
      "Ġvisit": 3456,
      "åĪĨãģĭ": 3457,
      "af": 3458,
      "Ġcried": 3459,
      "Ġbusiness": 3460,
      "Ġstre": 3461,
      "illed": 3462,
      "ä»¤": 3463,
      "igh": 3464,
      "å¯¹ä¸įå¯¹": 3465,
      "åĹ¯åĹ¯": 3466,
      "Ġprov": 3467,
      "ä¸īä¸ª": 3468,
      "rence": 3469,
      "å¯¹å¯¹å¯¹": 3470,
      "Ġcir": 3471,
      "ãĤĪãģĿ": 3472,
      "ãĤįãģĨ": 3473,
      "åı«åģļ": 3474,
      "åĩĨå¤ĩ": 3475,
      "æĦ¿æĦı": 3476,
      "Ġbrother": 3477,
      "Ġdro": 3478,
      "æĬ±": 3479,
      "Ġelse": 3480,
      "Ġgentle": 3481,
      "é¡¾": 3482,
      "çİī": 3483,
      "Ġmus": 3484,
      "Ġeverything": 3485,
      "ãĤĴè¦ĭ": 3486,
      "å®¶éĩĮ": 3487,
      "ãģĶãģĸãģĦãģ¾ãģĻ": 3488,
      "Ġschool": 3489,
      "ery": 3490,
      "åħ¶ä»ĸ": 3491,
      "æĺ¯æĺ¯": 3492,
      "éĤ£æĪĳ": 3493,
      "Ġwomen": 3494,
      "å®īåħ¨": 3495,
      "é¢Ħ": 3496,
      "åĪĺ": 3497,
      "åħĦ": 3498,
      "ãĤĪãĤĬ": 3499,
      "ãģįãĤĩãģĨ": 3500,
      "ãģ«åħ¥": 3501,
      "é¢ĳ": 3502,
      "ãģĦãĤį": 3503,
      "Ġabove": 3504,
      "åĿı": 3505,
      "ãĤĵãģ§ãģĻãģŃ": 3506,
      "çľŁæŃ£": 3507,
      "èĥ½åĬĽ": 3508,
      "Ġgovern": 3509,
      "ä½Ľ": 3510,
      "Ġfear": 3511,
      "å¸Ĥåľº": 3512,
      "éĢ±": 3513,
      "åĪĴ": 3514,
      "Ġknown": 3515,
      "Ġwhether": 3516,
      "Ġaff": 3517,
      "ãĤ·ãĤ¢": 3518,
      "Ġjud": 3519,
      "ãģ§ãģĻãĤĪãģŃ": 3520,
      "ä¹Łæ²¡æľī": 3521,
      "çĶµè¯Ŀ": 3522,
      "Ġstra": 3523,
      "ãĤ½": 3524,
      "Ġnecess": 3525,
      "åĲ¦": 3526,
      "Ġitself": 3527,
      "ãģĵãģ¨ãĤĴ": 3528,
      "let": 3529,
      "ceived": 3530,
      "Ġfair": 3531,
      "ãĤģãĤĭ": 3532,
      "çĬ¶æĢģ": 3533,
      "æĢĢ": 3534,
      "Ġap": 3535,
      "imes": 3536,
      "åģļçļĦ": 3537,
      "ãĤ¤ãĥ³": 3538,
      "Ġsea": 3539,
      "ãĤīãĤĮãĤĭ": 3540,
      "ances": 3541,
      "anger": 3542,
      "iful": 3543,
      "Ġgeneral": 3544,
      "è§¦": 3545,
      "ury": 3546,
      "ãģ¨ãĤĤ": 3547,
      "ãĥªãĤ«": 3548,
      "Ġexam": 3549,
      "Ġclear": 3550,
      "Ġbir": 3551,
      "wered": 3552,
      "æĥ³åĪ°": 3553,
      "æ¸ħæ¥ļ": 3554,
      "ãģĤãĤĬãģĮãģ¨ãģĨ": 3555,
      "æĸĩåĮĸ": 3556,
      "åŃ¦çĶŁ": 3557,
      "ump": 3558,
      "ides": 3559,
      "Ġwood": 3560,
      "ãģ£ãģ¡ãĤĥ": 3561,
      "ãģªãģĮãĤī": 3562,
      "çīĮ": 3563,
      "æĸ½": 3564,
      "éģİ": 3565,
      "Ġpartic": 3566,
      "ä½łåľ¨": 3567,
      "Ġfamily": 3568,
      "ãģıãĤĭ": 3569,
      "è´µ": 3570,
      "Ġprin": 3571,
      "Ġwall": 3572,
      "This": 3573,
      "overed": 3574,
      "é¡º": 3575,
      "ãģĹãĤĥ": 3576,
      "ãĤīãĤĮãģ¦": 3577,
      "cing": 3578,
      "Ġcal": 3579,
      "ç»ıå¸¸": 3580,
      "çºª": 3581,
      "Ġstory": 3582,
      "æĻº": 3583,
      "æľºä¼ļ": 3584,
      "Ġsum": 3585,
      "ä¸Ģå®ļè¦ģ": 3586,
      "Ġthus": 3587,
      "ä¸įç®¡": 3588,
      "ä¼ļåĦ¿": 3589,
      "å¢ŀ": 3590,
      "å£°éŁ³": 3591,
      "Ġquick": 3592,
      "å¿ľ": 3593,
      "Ġfree": 3594,
      "æħ¢æħ¢": 3595,
      "Ġmount": 3596,
      "å¥Ĺ": 3597,
      "ãģĳãģŁ": 3598,
      "åģ´": 3599,
      "æĪĳä»¬å°±": 3600,
      "å¿ĥéĩĮ": 3601,
      "çµĤ": 3602,
      "Ġinform": 3603,
      "çµĮ": 3604,
      "ãĤĤãĤī": 3605,
      "åĲĮæĹ¶": 3606,
      "åıĳå±ķ": 3607,
      "åľĪ": 3608,
      "æĽ¸": 3609,
      "Ġstri": 3610,
      "è¯´äºĨ": 3611,
      "éĢĥ": 3612,
      "Ġgold": 3613,
      "Ġvol": 3614,
      "å¹´åīį": 3615,
      "è¯´æĺ¯": 3616,
      "Ġstep": 3617,
      "è»¢": 3618,
      "ãĤ´": 3619,
      "åĳ¢æĺ¯": 3620,
      "äºĳ": 3621,
      "ãģ¨æĢĿãģĨ": 3622,
      "ãģĵãĤĵãģª": 3623,
      "çĪĨ": 3624,
      "ä»ķ": 3625,
      "çļĦåľ°æĸ¹": 3626,
      "è®©ä½ł": 3627,
      "æľ¬å½ĵãģ«": 3628,
      "ãģ¾ãĤĬ": 3629,
      "ub": 3630,
      "owed": 3631,
      "eth": 3632,
      "è´¢": 3633,
      "çĻ¾åĪĨä¹ĭ": 3634,
      "cted": 3635,
      "Ġdiv": 3636,
      "æĪĳè¿ĺ": 3637,
      "Ġtown": 3638,
      "åħħ": 3639,
      "æ¯Ĵ": 3640,
      "Ġactually": 3641,
      "Ġask": 3642,
      "åĽłä¸ºä»ĸ": 3643,
      "use": 3644,
      "Ġchur": 3645,
      "ä½łä¼ļ": 3646,
      "Ġz": 3647,
      "ric": 3648,
      "æĪĳçľĭ": 3649,
      "Ġwonder": 3650,
      "å¸Ŀ": 3651,
      "Ġmaking": 3652,
      "åĸĦ": 3653,
      "Ġmaster": 3654,
      "Ġconc": 3655,
      "Ġanswered": 3656,
      "å¼µ": 3657,
      "åĩºäºĨ": 3658,
      "lly": 3659,
      "ãģĪãģŁ": 3660,
      "ãģĬãĤĪãģĿ": 3661,
      "Ġmis": 3662,
      "ä½ľåĵģ": 3663,
      "ä¼´": 3664,
      "è¨ĺ": 3665,
      "è¼": 3666,
      "Ġexpect": 3667,
      "åıªèĥ½": 3668,
      "è®¤è¯Ĩ": 3669,
      "ãģªãĤĭ": 3670,
      "Ġidea": 3671,
      "åŃ¦ä¹ł": 3672,
      "Ġpret": 3673,
      "éĽ£": 3674,
      "Ġappro": 3675,
      "ï¼®": 3676,
      "çĸ«": 3677,
      "éĿŀå¸¸çļĦ": 3678,
      "å®ĥçļĦ": 3679,
      "èĻĳ": 3680,
      "åºĶè¯¥æĺ¯": 3681,
      "ãĥ¼ãĤ¸": 3682,
      "ãģ¨ãģĦãģĨãģĵãģ¨ãģ§": 3683,
      "ug": 3684,
      "Ġcirc": 3685,
      "æĪĲä¸º": 3686,
      "ãģŁãģł": 3687,
      "Ġtruth": 3688,
      "Ġmed": 3689,
      "å§Ķ": 3690,
      "ny": 3691,
      "Ġbad": 3692,
      "æīĭæľº": 3693,
      "å¥¥": 3694,
      "alked": 3695,
      "Ġef": 3696,
      "åĲ¬åĪ°": 3697,
      "åĽ°": 3698,
      "è¿Ļä¸ªäºº": 3699,
      "Ġhur": 3700,
      "å¸Ń": 3701,
      "èº«ä½ĵ": 3702,
      "åŃĺåľ¨": 3703,
      "ãģ¿ãĤĵãģª": 3704,
      "Ġcap": 3705,
      "åİŁæĿ¥": 3706,
      "æ±ī": 3707,
      "å¢Ĺ": 3708,
      "ä¼ĺ": 3709,
      "But": 3710,
      "èµĽ": 3711,
      "Ġdoubt": 3712,
      "çĭĹ": 3713,
      "Ġbecome": 3714,
      "ï¼³": 3715,
      "åŁºæľ¬ä¸Ĭ": 3716,
      "éº»": 3717,
      "æķ£": 3718,
      "æ¬§": 3719,
      "æĸ°çļĦ": 3720,
      "Ġduring": 3721,
      "Ġreplied": 3722,
      "æŁ»": 3723,
      "åħ°": 3724,
      "ãģĻãĤĭãģ¨": 3725,
      "å¼Ħ": 3726,
      "Ġmove": 3727,
      "oc": 3728,
      "æīĢæľīçļĦ": 3729,
      "åİĨåı²": 3730,
      "ec": 3731,
      "Ġseven": 3732,
      "ç·ļ": 3733,
      "akes": 3734,
      "Ġmad": 3735,
      "Ġdef": 3736,
      "ism": 3737,
      "Ġfoot": 3738,
      "èĪ¹": 3739,
      "lled": 3740,
      "éĻĪ": 3741,
      "ãĥŃãĤ·ãĤ¢": 3742,
      "ãĤĨ": 3743,
      "éĤ£æĹ¶åĢĻ": 3744,
      "çĪ¸çĪ¸": 3745,
      "ient": 3746,
      "éĥ½æ²¡æľī": 3747,
      "Ġdomain": 3748,
      "æĬĹ": 3749,
      "ught": 3750,
      "Ġtherefore": 3751,
      "Ġwatch": 3752,
      "è¿Ļè¿Ļ": 3753,
      "Ġlow": 3754,
      "bit": 3755,
      "Ġval": 3756,
      "Ġwalk": 3757,
      "è¿·": 3758,
      "äºķ": 3759,
      "åı¯èĥ½æĺ¯": 3760,
      "ï¼¡": 3761,
      "Ġeither": 3762,
      "ize": 3763,
      "èİ·": 3764,
      "Ġmonth": 3765,
      "ç£": 3766,
      "æĦŁæŁĵ": 3767,
      "min": 3768,
      "Ġeffect": 3769,
      "ames": 3770,
      "åŁİå¸Ĥ": 3771,
      "èĩªçĦ¶": 3772,
      "aven": 3773,
      "ä¿º": 3774,
      "çļĦéĤ£ç§į": 3775,
      "æĽ¾ç»ı": 3776,
      "éĻ¤äºĨ": 3777,
      "ural": 3778,
      "é¡¹": 3779,
      "ãģ£ãģ¦ãģĦ": 3780,
      "éļĽ": 3781,
      "é±": 3782,
      "ãĤĵãģ§ãģĻãĤĪ": 3783,
      "æİ¢": 3784,
      "Ġplease": 3785,
      "Ġjohn": 3786,
      "åĲĦä½į": 3787,
      "Ġsaying": 3788,
      "Ġacross": 3789,
      "Ġbas": 3790,
      "ically": 3791,
      "åºĬ": 3792,
      "ãģ®æĸ¹": 3793,
      "uc": 3794,
      "Ġbes": 3795,
      "åįĩ": 3796,
      "ç²ī": 3797,
      "éģ¿": 3798,
      "ãģ§ãģĻãģĮ": 3799,
      "ãģ¾ãģĹãĤĩãģĨ": 3800,
      "Ġlost": 3801,
      "å¦»": 3802,
      "orrow": 3803,
      "äººçĶŁ": 3804,
      "ls": 3805,
      "æĮģãģ¡": 3806,
      "å¾®ä¿¡": 3807,
      "éľ²": 3808,
      "right": 3809,
      "çĪ¶æ¯į": 3810,
      "æļ´": 3811,
      "Ġcut": 3812,
      "app": 3813,
      "äºĨè§£": 3814,
      "å¹´è½»": 3815,
      "tered": 3816,
      "Ġbur": 3817,
      "ices": 3818,
      "Ġcreat": 3819,
      "åĿļ": 3820,
      "Ġcomple": 3821,
      "ãĤ§": 3822,
      "å°¤": 3823,
      "Ġpain": 3824,
      "Ġpossible": 3825,
      "Ġcat": 3826,
      "gs": 3827,
      "uss": 3828,
      "å½¼": 3829,
      "é§": 3830,
      "Ġfell": 3831,
      "Ġsense": 3832,
      "åĲįåŃĹ": 3833,
      "Ġsol": 3834,
      "é±¼": 3835,
      "ãģĭãģ«": 3836,
      "dle": 3837,
      "Ġheld": 3838,
      "èįī": 3839,
      "Ġbecame": 3840,
      "æĿ¥è®²": 3841,
      "ä¸Ģå¤©": 3842,
      "ãģĲãĤīãģĦ": 3843,
      "ä½łåı¯ä»¥": 3844,
      "ãĤĵãģ§ãģĻãģĭ": 3845,
      "æĬĵ": 3846,
      "sp": 3847,
      "Ġpast": 3848,
      "æĿŁ": 3849,
      "åłĤ": 3850,
      "Ġequ": 3851,
      "Ġfort": 3852,
      "è¶ĬæĿ¥": 3853,
      "ãĤ¢ãĥ¡": 3854,
      "ä¸įå¤ª": 3855,
      "å°±åľ¨": 3856,
      "lls": 3857,
      "Ġdi": 3858,
      "èŀ": 3859,
      "æł¹æľ¬": 3860,
      "ãĤīãģªãģĦ": 3861,
      "ott": 3862,
      "é¦ĸåħĪ": 3863,
      "åĢŁ": 3864,
      "Ġprob": 3865,
      "æĿ¥çľĭ": 3866,
      "ening": 3867,
      "Ġbegin": 3868,
      "èĦ±": 3869,
      "Ġrequ": 3870,
      "Ġsleep": 3871,
      "ä»¥ä¸º": 3872,
      "å°±åı¯ä»¥": 3873,
      "ctor": 3874,
      "Ġsever": 3875,
      "ining": 3876,
      "ä¹Łä¼ļ": 3877,
      "æ¬¾": 3878,
      "æĭĽ": 3879,
      "åķĬåķĬ": 3880,
      "Ġmag": 3881,
      "Ġameric": 3882,
      "Ġfur": 3883,
      "åĬª": 3884,
      "Ġdem": 3885,
      "æľ¬æĿ¥": 3886,
      "Ġest": 3887,
      "åİ»å¹´": 3888,
      "ãĤĪãģı": 3889,
      "èĭı": 3890,
      "åªĴ": 3891,
      "ccess": 3892,
      "éĵģ": 3893,
      "äºĨåĲĹ": 3894,
      "nding": 3895,
      "Ġanswer": 3896,
      "è©¦": 3897,
      "åħį": 3898,
      "arch": 3899,
      "æľīå¾Īå¤ļ": 3900,
      "ãģĺãĤĥãģĤ": 3901,
      "è¶ĬæĿ¥è¶Ĭ": 3902,
      "åıĤåĬł": 3903,
      "Ġsal": 3904,
      "æĶ¿æ²»": 3905,
      "æľ¬èº«": 3906,
      "Ġthirty": 3907,
      "çĮ«": 3908,
      "Ġinformation": 3909,
      "æĪĲåĬŁ": 3910,
      "è¿Ķ": 3911,
      "èĹ¤": 3912,
      "Ġhus": 3913,
      "Ġobser": 3914,
      "ç·ı": 3915,
      "ç¹": 3916,
      "Ġsubject": 3917,
      "Ġgrow": 3918,
      "åħ¶å®ŀæĺ¯": 3919,
      "ges": 3920,
      "ãģ¸ãģ®": 3921,
      "Ġwon": 3922,
      "å®¶åºŃ": 3923,
      "çļĦãģª": 3924,
      "å®£": 3925,
      "æ´²": 3926,
      "Ġwanted": 3927,
      "æŀĦ": 3928,
      "like": 3929,
      "ä»Ģä¹ĪçļĦ": 3930,
      "å°±æĺ¯åľ¨": 3931,
      "ä¸įä¸Ģæł·": 3932,
      "Ġarm": 3933,
      "ãĤĬãģ®": 3934,
      "Ġremember": 3935,
      "ç§ĭ": 3936,
      "lig": 3937,
      "æľīæĹ¶åĢĻ": 3938,
      "çĦ¡": 3939,
      "æĹ¢": 3940,
      "Ġthee": 3941,
      "è¿Ļæ¬¡": 3942,
      "ãĥģãĥ£": 3943,
      "çļĦå¤§": 3944,
      "val": 3945,
      "Ġtrou": 3946,
      "Ġbuild": 3947,
      "ä¸Ī": 3948,
      "å¨ģ": 3949,
      "åĵİåĳĢ": 3950,
      "èĳī": 3951,
      "chi": 3952,
      "olog": 3953,
      "Ġtou": 3954,
      "ãĤ¢ãĥ¡ãĥªãĤ«": 3955,
      "Ġcho": 3956,
      "ãĤ¸ãĥ£": 3957,
      "æĥĬ": 3958,
      "Ġum": 3959,
      "ç«¯": 3960,
      "ues": 3961,
      "åĦª": 3962,
      "ä½Ĩæĺ¯åĳ¢": 3963,
      "ards": 3964,
      "Ġpay": 3965,
      "æĬķèµĦ": 3966,
      "Ġkept": 3967,
      "èĮ¶": 3968,
      "ey": 3969,
      "èµ°äºĨ": 3970,
      "And": 3971,
      "é½": 3972,
      "Ġblood": 3973,
      "ics": 3974,
      "Ġroad": 3975,
      "æĶ¯æĮģ": 3976,
      "Ġchurch": 3977,
      "Ġwish": 3978,
      "ãĤĵãģ§ãģĻãģĮ": 3979,
      "Ġcharact": 3980,
      "ãģĿãģĨãģ§ãģĻãģŃ": 3981,
      "æĪĳçİ°åľ¨": 3982,
      "Ġve": 3983,
      "è¿Ļä»¶äºĭæĥħ": 3984,
      "æŀ¶": 3985,
      "æĬĬå®ĥ": 3986,
      "éĻª": 3987,
      "è¯´ä½ł": 3988,
      "å¦Ĥä½ķ": 3989,
      "çĳ": 3990,
      "çļĦå°±æĺ¯": 3991,
      "å¼Ĥ": 3992,
      "arent": 3993,
      "é¨": 3994,
      "itted": 3995,
      "Ġsevent": 3996,
      "Ġtable": 3997,
      "å®ħ": 3998,
      "éĢı": 3999,
      "Ġfre": 4000,
      "Ġfellow": 4001,
      "gin": 4002,
      "åĺ´": 4003,
      "Ġphi": 4004,
      "Ġsqu": 4005,
      "bs": 4006,
      "æ··": 4007,
      "Ġevening": 4008,
      "å£²": 4009,
      "åľ¨ä¸Ģèµ·": 4010,
      "ä¸½": 4011,
      "Ġbeautiful": 4012,
      "å©Ĩ": 4013,
      "over": 4014,
      "Ġcommand": 4015,
      "éĤ£ä¸ªæĹ¶åĢĻ": 4016,
      "Ġpray": 4017,
      "æĬĬè¿Ļä¸ª": 4018,
      "ãģķãģĤ": 4019,
      "æĬĺ": 4020,
      "ĠN": 4021,
      "Ġwild": 4022,
      "Ġdiffic": 4023,
      "ãģķãĤĮãĤĭ": 4024,
      "Ġcold": 4025,
      "åĲİéĿ¢": 4026,
      "Ġvar": 4027,
      "éĥ½åľ¨": 4028,
      "aughter": 4029,
      "Ġheaven": 4030,
      "åĪ¥": 4031,
      "ãģ«å¯¾": 4032,
      "who": 4033,
      "èĨ": 4034,
      "è·Łä½ł": 4035,
      "ãĥļ": 4036,
      "Ġoffic": 4037,
      "uff": 4038,
      "Ġview": 4039,
      "æľĢé«ĺ": 4040,
      "ä¼Ļ": 4041,
      "çĶ£": 4042,
      "Ġchange": 4043,
      "Ġyeah": 4044,
      "çĽĽ": 4045,
      "ç¨®": 4046,
      "idence": 4047,
      "ç´¯": 4048,
      "ä¸ĭåİ»": 4049,
      "Ġcra": 4050,
      "å¯¹åķĬ": 4051,
      "è®©ä»ĸ": 4052,
      "tern": 4053,
      "å§ĳ": 4054,
      "Ġmur": 4055,
      "ä¹Ĺ": 4056,
      "éľĩ": 4057,
      "åĲ«": 4058,
      "ists": 4059,
      "Ġproper": 4060,
      "è¨Ń": 4061,
      "ney": 4062,
      "Ġwin": 4063,
      "Ġdream": 4064,
      "ä¹Łåı¯ä»¥": 4065,
      "æľªæĿ¥": 4066,
      "Ġpretty": 4067,
      "Ġstay": 4068,
      "ãģ¾ãģĹãģ¦": 4069,
      "Ġcommon": 4070,
      "æĸ¹æ³ķ": 4071,
      "åĵŃ": 4072,
      "iter": 4073,
      "é¹": 4074,
      "çµ±": 4075,
      "Ġhist": 4076,
      "åĭĻ": 4077,
      "åĲī": 4078,
      "éĩĬ": 4079,
      "Ġpet": 4080,
      "æĢ§çļĦ": 4081,
      "æī¹": 4082,
      "Ġperfect": 4083,
      "ãģĬé¡ĺãģĦãģĹãģ¾ãģĻ": 4084,
      "rs": 4085,
      "Ġseveral": 4086,
      "Ġlater": 4087,
      "Ġconsider": 4088,
      "Ġready": 4089,
      "Ġsight": 4090,
      "br": 4091,
      "ãģĨãĤĵ": 4092,
      "Ġran": 4093,
      "äº¿": 4094,
      "èľ": 4095,
      "ãģĦãģ¤": 4096,
      "æħĭ": 4097,
      "ãģ«ãģĭ": 4098,
      "æĪ¿åŃĲ": 4099,
      "åħ¨åĽ½": 4100,
      "Ġtowards": 4101,
      "å¾Īæľī": 4102,
      "äºİæĺ¯": 4103,
      "è¿Ļè¾¹": 4104,
      "è»į": 4105,
      "è¦ª": 4106,
      "ats": 4107,
      "Ġstrange": 4108,
      "though": 4109,
      "åĦ¿åŃĲ": 4110,
      "åŃ£": 4111,
      "Ġfig": 4112,
      "çľŁæĺ¯": 4113,
      "æ£®": 4114,
      "ç¬¬ä¸Ģä¸ª": 4115,
      "å¿ĥçļĦ": 4116,
      "ãģ¨ãģ¯": 4117,
      "å¾Īå¥½": 4118,
      "ãĥ¼ãĤ¯": 4119,
      "Ġsuccess": 4120,
      "org": 4121,
      "ster": 4122,
      "ead": 4123,
      "Ġport": 4124,
      "å°ıæĹ¶": 4125,
      "æĪĳä¼ļ": 4126,
      "å°±æĺ¯æĪĳä»¬": 4127,
      "ãģ£ãģŁãĤī": 4128,
      "æµª": 4129,
      "Ġnin": 4130,
      "çĦ¶åĲİå°±": 4131,
      "æľ«": 4132,
      "utes": 4133,
      "ä¸įå¤ļ": 4134,
      "Ġappear": 4135,
      "Ġsecret": 4136,
      "æł¸": 4137,
      "ãĥİ": 4138,
      "Ġcri": 4139,
      "å°ģ": 4140,
      "cent": 4141,
      "æłĳ": 4142,
      "ä¸ŃçļĦ": 4143,
      "ä¼ģä¸ļ": 4144,
      "Ġfaith": 4145,
      "æĽ¿": 4146,
      "Ġrose": 4147,
      "åį«": 4148,
      "è·Łä»ĸ": 4149,
      "Ġmanner": 4150,
      "ãĥ³ãģ®": 4151,
      "Ġut": 4152,
      "æī¾åĪ°": 4153,
      "Ġplan": 4154,
      "åĬªåĬĽ": 4155,
      "Ġsometimes": 4156,
      "æľīçļĦ": 4157,
      "ä¸įè¡Į": 4158,
      "ç§Ģ": 4159,
      "æļĹ": 4160,
      "å¯¹æĪĳ": 4161,
      "ä¸Ģå¹´": 4162,
      "æĴĥ": 4163,
      "Ġpen": 4164,
      "Ġcommun": 4165,
      "Ġbreak": 4166,
      "side": 4167,
      "åı¯èĥ½ä¼ļ": 4168,
      "Ġfav": 4169,
      "ä»¥åıĬ": 4170,
      "room": 4171,
      "è¿ĩäºĨ": 4172,
      "å¾ĹåĪ°": 4173,
      "Ġaccount": 4174,
      "cul": 4175,
      "éģį": 4176,
      "æ§ĭ": 4177,
      "Ġsuper": 4178,
      "æľīä¸ª": 4179,
      "ones": 4180,
      "band": 4181,
      "here": 4182,
      "ression": 4183,
      "è¡¥": 4184,
      "Ġhorse": 4185,
      "çĽĺ": 4186,
      "itting": 4187,
      "iously": 4188,
      "åıĶ": 4189,
      "æ´ĭ": 4190,
      "Ġje": 4191,
      "Ġsurp": 4192,
      "ãĤĴåıĹ": 4193,
      "éĽ·": 4194,
      "è¿°": 4195,
      "åı¯èĥ½æĢ§": 4196,
      "çľĭçĿĢ": 4197,
      "ä½łæĥ³": 4198,
      "çļĦæĹ¶éĹ´": 4199,
      "Ġcross": 4200,
      "çĥ¦": 4201,
      "åħ³äºİ": 4202,
      "Ġself": 4203,
      "éª¨": 4204,
      "ä»ĸä»ĸ": 4205,
      "che": 4206,
      "Ġdeal": 4207,
      "èĩªçĶ±": 4208,
      "çĽĬ": 4209,
      "å°Ħ": 4210,
      "çļĨãģķãĤĵ": 4211,
      "ãģĹãĤĩ": 4212,
      "gy": 4213,
      "Ġdest": 4214,
      "åĽ½åĨħ": 4215,
      "Ġlea": 4216,
      "åĪº": 4217,
      "éĵ¶": 4218,
      "ork": 4219,
      "åĲĮåŃ¦": 4220,
      "ging": 4221,
      "ality": 4222,
      "Ġlab": 4223,
      "é¸¡": 4224,
      "ãĥ¼ãĤº": 4225,
      "ãģķãĤī": 4226,
      "bers": 4227,
      "ä½Ļ": 4228,
      "Ġpie": 4229,
      "Ġge": 4230,
      "åĲĮãģĺ": 4231,
      "å¥½å¤ļ": 4232,
      "å¼±": 4233,
      "éĤ£éĤ£": 4234,
      "åĽŃ": 4235,
      "ds": 4236,
      "ãģĹãģ¦ãģĦãģŁ": 4237,
      "Ġsuddenly": 4238,
      "æģ¶": 4239,
      "oun": 4240,
      "æ¥½ãģĹ": 4241,
      "Ġline": 4242,
      "ãĤĮãģªãģĦ": 4243,
      "å¥½ãģį": 4244,
      "æİ¥åıĹ": 4245,
      "æĺ¯åĽłä¸º": 4246,
      "çĶ·æĢ§": 4247,
      "è¿Ľåħ¥": 4248,
      "Ġcast": 4249,
      "Ġparticular": 4250,
      "æĪĲäºĨ": 4251,
      "ç§ĺ": 4252,
      "oh": 4253,
      "ä½¿çĶ¨": 4254,
      "Ġslow": 4255,
      "ash": 4256,
      "éĩĩ": 4257,
      "cks": 4258,
      "Ġeye": 4259,
      "ä¸Ģæĸ¹": 4260,
      "Ġmot": 4261,
      "æĪĸèĢħè¯´": 4262,
      "ç¸": 4263,
      "Ġcorn": 4264,
      "å°¤åħ¶": 4265,
      "Ġhappy": 4266,
      "æĦŁè°¢": 4267,
      "Ġfront": 4268,
      "æ³ģ": 4269,
      "åĨ³å®ļ": 4270,
      "Ġmist": 4271,
      "èĵ": 4272,
      "æ¨ª": 4273,
      "ior": 4274,
      "Ġquiet": 4275,
      "éĢ¼": 4276,
      "å·¨": 4277,
      "ä¸ĢçĻ¾": 4278,
      "å°±æĺ¯ä¸Ģä¸ª": 4279,
      "Ġobject": 4280,
      "Ġsoft": 4281,
      "åĵĩ": 4282,
      "ãĤıãĤĮãģ¦": 4283,
      "æĸĹ": 4284,
      "äºĶåįģ": 4285,
      "æı´": 4286,
      "Ġbat": 4287,
      "åī²": 4288,
      "ãģ¨ãģį": 4289,
      "ä¹Łå¥½": 4290,
      "con": 4291,
      "çĦ¶åĲİæĪĳ": 4292,
      "å½©": 4293,
      "Ġimag": 4294,
      "une": 4295,
      "è¦ģæ±Ĥ": 4296,
      "æµĭ": 4297,
      "Ġfine": 4298,
      "å§¿": 4299,
      "ç»ıåİĨ": 4300,
      "rom": 4301,
      "Ġreturned": 4302,
      "Ġarri": 4303,
      "çļĦãģ«": 4304,
      "èĥ¡": 4305,
      "ä¼Ĭ": 4306,
      "ex": 4307,
      "å°±æĺ¯è¿Ļä¸ª": 4308,
      "å®Łãģ¯": 4309,
      "Ġcomes": 4310,
      "è¿ĺè¦ģ": 4311,
      "ãģªãģıãģ¦": 4312,
      "ley": 4313,
      "ä½łæĢİä¹Ī": 4314,
      "çķ¥": 4315,
      "æ¼«": 4316,
      "und": 4317,
      "ä¿Ĥ": 4318,
      "æķĻèĤ²": 4319,
      "Ġrespect": 4320,
      "par": 4321,
      "å½¹": 4322,
      "å®Ĺ": 4323,
      "å¼¹": 4324,
      "ham": 4325,
      "è£ģ": 4326,
      "åįł": 4327,
      "ledge": 4328,
      "Ġsto": 4329,
      "éĺ¶": 4330,
      "å®ĩ": 4331,
      "ãģ«ãģĤãĤĭ": 4332,
      "è§£åĨ³": 4333,
      "ãģ£ãģĭãĤĬ": 4334,
      "Ġseems": 4335,
      "Ġtop": 4336,
      "æĻ®éĢļ": 4337,
      "èĹı": 4338,
      "Ġver": 4339,
      "é©¬ä¸Ĭ": 4340,
      "ously": 4341,
      "ï¼´": 4342,
      "co": 4343,
      "éĤ£å°±": 4344,
      "ãģ¨ãģ®": 4345,
      "Ġhair": 4346,
      "åİ»åģļ": 4347,
      "Ġenglish": 4348,
      "é¤Ĳ": 4349,
      "Ġvir": 4350,
      "ä¸Ŀ": 4351,
      "Ġforg": 4352,
      "åľ£": 4353,
      "Ġpossess": 4354,
      "ç§¯": 4355,
      "å°¼": 4356,
      "ãĤ³ãĥŃ": 4357,
      "æĹģ": 4358,
      "æŃ©": 4359,
      "antly": 4360,
      "Ġsold": 4361,
      "Ġhusband": 4362,
      "çĽ®åīį": 4363,
      "Ġcause": 4364,
      "æįķ": 4365,
      "Ġarms": 4366,
      "ä½Ĩæĺ¯æĪĳ": 4367,
      "èĢ³": 4368,
      "æĶ¹åıĺ": 4369,
      "outh": 4370,
      "çļĦäºĭ": 4371,
      "Ġlad": 4372,
      "èŀį": 4373,
      "èº«ä¸Ĭ": 4374,
      "åħ¸": 4375,
      "Ġmere": 4376,
      "Ġrecord": 4377,
      "æ¾": 4378,
      "Ġglad": 4379,
      "åİī": 4380,
      "Ġsweet": 4381,
      "ãģªãĤĵãģł": 4382,
      "éŁ¿": 4383,
      "åģ·": 4384,
      "Ġfight": 4385,
      "Ġhours": 4386,
      "Ġrev": 4387,
      "ãĥ¼ãĥĹ": 4388,
      "éĻĨ": 4389,
      "å¯¹æĸ¹": 4390,
      "ï½į": 4391,
      "ãģ«è¡Į": 4392,
      "æĪĳéĥ½": 4393,
      "ä¸Īå¤«": 4394,
      "head": 4395,
      "æĬĢæľ¯": 4396,
      "tempt": 4397,
      "äºĮéĽ¶ä¸Ģ": 4398,
      "ots": 4399,
      "åĽŀåĪ°": 4400,
      "Ġexcept": 4401,
      "Ġlonger": 4402,
      "Ġtaking": 4403,
      "itude": 4404,
      "Ġris": 4405,
      "Ġcharacter": 4406,
      "æ¤ľ": 4407,
      "Ġpract": 4408,
      "Ġflo": 4409,
      "Ġanim": 4410,
      "è¾º": 4411,
      "Ġbreat": 4412,
      "ç¨ĭåº¦": 4413,
      "è¾Ī": 4414,
      "é¦Ĩ": 4415,
      "Ġmark": 4416,
      "çĶ·äºº": 4417,
      "åĲĪãĤı": 4418,
      "ãģĮãģĤãĤĬãģ¾ãģĻ": 4419,
      "çĽ¸å½ĵ": 4420,
      "æĿĤ": 4421,
      "è¿«": 4422,
      "å¥³äºº": 4423,
      "æĨ": 4424,
      "Ġriver": 4425,
      "æīĢä»¥åĳ¢": 4426,
      "ä¹Łæ²¡": 4427,
      "æ²Ļ": 4428,
      "ãĤģãģŁ": 4429,
      "è±Ĩ": 4430,
      "Ġforward": 4431,
      "æĶ¶åĲ¬": 4432,
      "èĽĭ": 4433,
      "æŃ£å¸¸": 4434,
      "Ġweek": 4435,
      "ãģĪãģ°": 4436,
      "å¾Īéļ¾": 4437,
      "stem": 4438,
      "å¹ķ": 4439,
      "Ġhappened": 4440,
      "è¿Ļä¸ªæĺ¯": 4441,
      "éĤ£æĺ¯": 4442,
      "çĩ": 4443,
      "Ġgetting": 4444,
      "æĥħåł±": 4445,
      "è´§": 4446,
      "çĶŁåĳ½": 4447,
      "éŃĶ": 4448,
      "ased": 4449,
      "Ġfifty": 4450,
      "Ġhot": 4451,
      "Ġliving": 4452,
      "åĽĽåįģ": 4453,
      "Ġmill": 4454,
      "éĶĢ": 4455,
      "ãģ©ãĤĵ": 4456,
      "çĬ¶æ³ģ": 4457,
      "Ġfollowed": 4458,
      "æĹ¶ä»£": 4459,
      "ç¼º": 4460,
      "æīįèĥ½": 4461,
      "åİ»çľĭ": 4462,
      "åīįéĿ¢": 4463,
      "å¦ĩ": 4464,
      "å²¸": 4465,
      "Ġcompany": 4466,
      "medi": 4467,
      "æĪĳè¿Ļ": 4468,
      "çĦ¶åĲİä»ĸ": 4469,
      "Ġstarted": 4470,
      "éĸ¢ä¿Ĥ": 4471,
      "æĦŁåıĹ": 4472,
      "ãģ¾ãģĤ": 4473,
      "æł·åŃĲ": 4474,
      "Ġty": 4475,
      "Ġcourt": 4476,
      "ives": 4477,
      "ãģ¿ãģŁãģĦãģª": 4478,
      "Ġgreen": 4479,
      "Ġspoke": 4480,
      "ä¸ĬäºĨ": 4481,
      "æĮ¯": 4482,
      "å¤īãĤı": 4483,
      "ä¸´": 4484,
      "lling": 4485,
      "åīįãģ«": 4486,
      "åł´æīĢ": 4487,
      "éĤ£æĪĳä»¬": 4488,
      "ç¬Ķ": 4489,
      "Ġearly": 4490,
      "åī¯": 4491,
      "Ġheav": 4492,
      "åĪĢ": 4493,
      "ãģĤãĤĮ": 4494,
      "ony": 4495,
      "ä½łè¿Ļ": 4496,
      "Ġvi": 4497,
      "ç»ª": 4498,
      "å®¹çĸĳ": 4499,
      "å¤§å®¶éĥ½": 4500,
      "ãģªãĤĵãģĭ": 4501,
      "ãģ«ãģªãģ£ãģŁ": 4502,
      "Ġimportant": 4503,
      "è¯¯": 4504,
      "å¥³çĶŁ": 4505,
      "åķıé¡Į": 4506,
      "å±ŀäºİ": 4507,
      "Ġwat": 4508,
      "ãĥķãĤ¡": 4509,
      "ãĤ¶": 4510,
      "Ġage": 4511,
      "Ġfun": 4512,
      "ç»į": 4513,
      "ãĤ²": 4514,
      "Ġoccas": 4515,
      "å¸®åĬ©": 4516,
      "bled": 4517,
      "è¾ĳ": 4518,
      "æŀª": 4519,
      "Ġworth": 4520,
      "ilt": 4521,
      "Ġpurp": 4522,
      "æĹ¥ãģ®": 4523,
      "Ġsuppose": 4524,
      "çļĦè¿Ļ": 4525,
      "Ġpal": 4526,
      "ãģ£ãģ¡": 4527,
      "Ġjoy": 4528,
      "ç¦»å¼Ģ": 4529,
      "Ġauth": 4530,
      "å½Ĵ": 4531,
      "ï¼İ": 4532,
      "Ġnine": 4533,
      "è¯´æĪĳ": 4534,
      "do": 4535,
      "ored": 4536,
      "å»¶": 4537,
      "eer": 4538,
      "Ġmod": 4539,
      "åį°è±¡": 4540,
      "orm": 4541,
      "åĽŀå®¶": 4542,
      "ãģĪãģ£": 4543,
      "æľĢå¾Į": 4544,
      "ä¹Łå°±æĺ¯": 4545,
      "ä¸Ģçķª": 4546,
      "èº«è¾¹": 4547,
      "ä¸¤ä¸ªäºº": 4548,
      "è¡¨ç¤º": 4549,
      "é¦Ļæ¸¯": 4550,
      "ä¸įçĶ¨": 4551,
      "Ġyourself": 4552,
      "éģĩåĪ°": 4553,
      "ãģĿãĤĮãģ¯": 4554,
      "åŃĻ": 4555,
      "æĥ¯": 4556,
      "è¯´è¿Ļä¸ª": 4557,
      "Ġpict": 4558,
      "rench": 4559,
      "å¿ĥçĲĨ": 4560,
      "é»ĺ": 4561,
      "æĪĳä»¬åľ¨": 4562,
      "isf": 4563,
      "Ġfield": 4564,
      "Ġclass": 4565,
      "Ġstreet": 4566,
      "yond": 4567,
      "è¦³": 4568,
      "Ġesc": 4569,
      "Ġago": 4570,
      "Ġgrand": 4571,
      "Ġtom": 4572,
      "è¡Įä¸º": 4573,
      "ãģ«ãģªãĤĬãģ¾ãģĻ": 4574,
      "Ġfeeling": 4575,
      "airs": 4576,
      "ãģĦãģį": 4577,
      "æİĪ": 4578,
      "Ġthinking": 4579,
      "Ġeff": 4580,
      "Ġcry": 4581,
      "çļĦè¿ĻäºĽ": 4582,
      "Ġdraw": 4583,
      "ãĤĴãģ¤": 4584,
      "ãĥ©ãĥ³": 4585,
      "For": 4586,
      "ãģ§ãģĻãģĭãĤī": 4587,
      "éĤ£è¾¹": 4588,
      "èĢĮæĺ¯": 4589,
      "Ġenem": 4590,
      "äº§åĵģ": 4591,
      "Ġreached": 4592,
      "æĽ´å¤ļ": 4593,
      "Ġsystem": 4594,
      "ãĥ¬ãĥ¼": 4595,
      "Ġprobably": 4596,
      "ç§Ĵ": 4597,
      "ãģ¼": 4598,
      "ãģ£ãģ¦ãģĦãģŁ": 4599,
      "ãĤ¤ãĥ«": 4600,
      "åĽŀåİ»": 4601,
      "æĢĿãģĦ": 4602,
      "åªĴä½ĵ": 4603,
      "ãģĦãģ£ãģŁ": 4604,
      "Ġhast": 4605,
      "ãģĽãĤĭ": 4606,
      "oint": 4607,
      "ä½łè¿ĺ": 4608,
      "ç¨į": 4609,
      "è¯´è¯Ŀ": 4610,
      "å¤§ä¼ļ": 4611,
      "ding": 4612,
      "Ġgovernment": 4613,
      "åĢį": 4614,
      "åĵªåĦ¿": 4615,
      "å®«": 4616,
      "Ġda": 4617,
      "ters": 4618,
      "å°¾": 4619,
      "Ġdut": 4620,
      "ç»ĵå©ļ": 4621,
      "Ġmor": 4622,
      "Ġdisp": 4623,
      "å¯Ĵ": 4624,
      "æĿ¯": 4625,
      "ination": 4626,
      "Ġentire": 4627,
      "ãģ«ãģĬ": 4628,
      "æģ©": 4629,
      "éĩĮçļĦ": 4630,
      "å°±è¦ģ": 4631,
      "çĶ³": 4632,
      "ãĤ¯ãĥ©ãĤ¤ãĥ": 4633,
      "èĢģæĿ¿": 4634,
      "åĨľ": 4635,
      "ä»ĸä¸į": 4636,
      "ror": 4637,
      "å°ĳãģĹ": 4638,
      "ç·Ĵ": 4639,
      "ãĤīãĤĮãģŁ": 4640,
      "åĩı": 4641,
      "ãģ£ãģĹãĤĥ": 4642,
      "Ġled": 4643,
      "Ġreceived": 4644,
      "éĿ©": 4645,
      "è¡£æľį": 4646,
      "Ġfurther": 4647,
      "Ġforth": 4648,
      "ãĤĵãģĺãĤĥãģªãģĦ": 4649,
      "Ġcamp": 4650,
      "åģı": 4651,
      "ãģ¨ãģĦãģĨãģ®ãģ¯": 4652,
      "Ġminutes": 4653,
      "Ġpeace": 4654,
      "æĽľ": 4655,
      "ç¨İ": 4656,
      "çľĭè§ģ": 4657,
      "Ġtried": 4658,
      "Ġsla": 4659,
      "æĿ¥èĩª": 4660,
      "çģ¯": 4661,
      "iling": 4662,
      "ç²¾ç¥ŀ": 4663,
      "Ġregard": 4664,
      "Ġcertainly": 4665,
      "æĸ°éĹ»": 4666,
      "Ġprot": 4667,
      "çİ¯å¢ĥ": 4668,
      "Ġbright": 4669,
      "ãĢĭ": 4670,
      "Ġsci": 4671,
      "ãģĤãĤĬãģ¾ãģĹãģŁ": 4672,
      "ç¡¬": 4673,
      "ma": 4674,
      "Ġparty": 4675,
      "ç¼ĸ": 4676,
      "Ġwindow": 4677,
      "Ġcaptain": 4678,
      "åĿĹéĴ±": 4679,
      "mp": 4680,
      "å¤ļãģı": 4681,
      "æĥ³æ³ķ": 4682,
      "è¯Ĺ": 4683,
      "éĶ®": 4684,
      "çĿĽ": 4685,
      "Ġord": 4686,
      "æ¶Īæģ¯": 4687,
      "come": 4688,
      "å¤ļäºĨ": 4689,
      "Ġresult": 4690,
      "ãģĤãģ£ãģŁ": 4691,
      "æıı": 4692,
      "Ġought": 4693,
      "ãĤ¯ãĥ©ãĤ¤ãĥĬ": 4694,
      "ãģĨãģ¡": 4695,
      "ãĤ¦ãĤ¯ãĥ©ãĤ¤ãĥĬ": 4696,
      "ush": 4697,
      "pend": 4698,
      "Ġtreat": 4699,
      "è´¥": 4700,
      "ob": 4701,
      "åħ¶ä¸Ń": 4702,
      "åĨ¬": 4703,
      "è¿Ľåİ»": 4704,
      "while": 4705,
      "Ġdanger": 4706,
      "Ġbeyond": 4707,
      "ãģµãģĨ": 4708,
      "Ġuni": 4709,
      "èĩ£": 4710,
      "å¯Ħ": 4711,
      "ä¸įå¾Ĺ": 4712,
      "å¥³åŃ©": 4713,
      "Ġforty": 4714,
      "ãģ»ãģĨ": 4715,
      "ãĢĬ": 4716,
      "Ġexist": 4717,
      "çĶº": 4718,
      "Ġeighteen": 4719,
      "å¼ķãģį": 4720,
      "Ġwrong": 4721,
      "Ġsmo": 4722,
      "ä¼ĿãģĪ": 4723,
      "go": 4724,
      "ina": 4725,
      "ital": 4726,
      "æĪĳèĩªå·±": 4727,
      "æŀĲ": 4728,
      "ories": 4729,
      "Ġav": 4730,
      "ãģĹãģĭãģĹ": 4731,
      "ãĤ³ãĥŃãĥĬ": 4732,
      "Ġchief": 4733,
      "èµ¤": 4734,
      "æĺ¯ä¸ª": 4735,
      "velop": 4736,
      "ãĤŃãĥ£": 4737,
      "æıĲä¾Ľ": 4738,
      "ãģ¥": 4739,
      "è¿Ļå°±æĺ¯": 4740,
      "æļĸ": 4741,
      "æ®µæĹ¶éĹ´": 4742,
      "pping": 4743,
      "çĥ§": 4744,
      "æĢİä¹ĪåĬŀ": 4745,
      "åĲ¹": 4746,
      "Ġfast": 4747,
      "é¡¶": 4748,
      "è·Ŀ": 4749,
      "æ²ī": 4750,
      "è¿Ļä¸ªä¸ľè¥¿": 4751,
      "ä¸Ńå¿ĥ": 4752,
      "çĻºè¡¨": 4753,
      "Ġpriv": 4754,
      "æĹ§": 4755,
      "éĹ¹": 4756,
      "ye": 4757,
      "Ġimmedi": 4758,
      "ãģĦãģįãģ¾ãģĻ": 4759,
      "èĪĴ": 4760,
      "ume": 4761,
      "ãĥªãĤ¢": 4762,
      "ãĤĬãģ«": 4763,
      "Ġcarry": 4764,
      "çłģ": 4765,
      "å¼ĥ": 4766,
      "Ġquar": 4767,
      "Ġang": 4768,
      "ãĤĴä½¿": 4769,
      "ä»ĬæĹ¥ãģ¯": 4770,
      "ries": 4771,
      "é¨ĵ": 4772,
      "çĺ": 4773,
      "çµ¶": 4774,
      "Ġtrying": 4775,
      "åįģäºĮ": 4776,
      "har": 4777,
      "èĢĥãģĪ": 4778,
      "com": 4779,
      "ime": 4780,
      "æĺ¯ä½ł": 4781,
      "Ġincl": 4782,
      "ä»ĭç»į": 4783,
      "æĦŁæĥħ": 4784,
      "åĤĻ": 4785,
      "Ġpost": 4786,
      "éķľ": 4787,
      "ä»ĸä¼ļ": 4788,
      "Ġcarried": 4789,
      "Ġtalking": 4790,
      "çº³": 4791,
      "æİĮ": 4792,
      "Ġship": 4793,
      "æīĢä»¥æĪĳ": 4794,
      "æĤ²": 4795,
      "Ġtoward": 4796,
      "owers": 4797,
      "ç¬¬ä¸ī": 4798,
      "å½±éŁ¿": 4799,
      "å¼Ģå¿ĥ": 4800,
      "hold": 4801,
      "åı¶": 4802,
      "è·Łå¤§å®¶": 4803,
      "ç¯ĩ": 4804,
      "ç»ľ": 4805,
      "çĥĪ": 4806,
      "èĪª": 4807,
      "ç«¥": 4808,
      "ified": 4809,
      "æĸ¹åĲĳ": 4810,
      "ç¬¬ä¸Ģæ¬¡": 4811,
      "iar": 4812,
      "ãģ©ãĤĵãģª": 4813,
      "æ°¸è¿ľ": 4814,
      "ament": 4815,
      "è®Ń": 4816,
      "ä»Ģä¹Īåĳ¢": 4817,
      "ãģªãĤī": 4818,
      "é£Ľ": 4819,
      "æ£Ģ": 4820,
      "åĭ¢": 4821,
      "Ġcoun": 4822,
      "åĲ¬ä¼Ĺ": 4823,
      "cially": 4824,
      "æĬ½": 4825,
      "Ġbill": 4826,
      "å°±æľī": 4827,
      "éļĶ": 4828,
      "Ġdaughter": 4829,
      "æĥħç»ª": 4830,
      "Ġaccom": 4831,
      "éĩįè¦ģçļĦ": 4832,
      "æľŁå¾ħ": 4833,
      "ä½įç½®": 4834,
      "æ´»åĬ¨": 4835,
      "ection": 4836,
      "ç¢°": 4837,
      "é¡¿": 4838,
      "Ġmakes": 4839,
      "ä¸Ģç·Ĵ": 4840,
      "å¿į": 4841,
      "è½¯": 4842,
      "äºĨåĲ§": 4843,
      "æĢĸ": 4844,
      "ä¹Łä¸įæĺ¯": 4845,
      "çº¸": 4846,
      "ational": 4847,
      "å¤§å®¶å¥½": 4848,
      "Ġappeared": 4849,
      "ãģĦãģ§": 4850,
      "åĤħ": 4851,
      "ä¸Ģçľĭ": 4852,
      "ç¢ºèªį": 4853,
      "åĶĲ": 4854,
      "åģ¥åº·": 4855,
      "è²ł": 4856,
      "ç±»çļĦ": 4857,
      "ãĤ·ãĥ§ãĥ³": 4858,
      "éªĹ": 4859,
      "éŁ©": 4860,
      "erm": 4861,
      "ãģĵãģ¨ãģ¯": 4862,
      "è¿Ļä¸ªæĹ¶åĢĻ": 4863,
      "dom": 4864,
      "rise": 4865,
      "Ġvill": 4866,
      "ä¸ĭéĿ¢": 4867,
      "ãģ®äºº": 4868,
      "ç»Ļå¤§å®¶": 4869,
      "Ġdescri": 4870,
      "åĪĨéĴŁ": 4871,
      "è®¿": 4872,
      "å®ĥæĺ¯": 4873,
      "Ġblue": 4874,
      "Ġauthor": 4875,
      "å¹¶ä¸įæĺ¯": 4876,
      "æı¡": 4877,
      "Ġmaj": 4878,
      "å§ĵ": 4879,
      "çľ¼çĿĽ": 4880,
      "Ġstren": 4881,
      "å¹´ä»£": 4882,
      "lu": 4883,
      "èĮĥ": 4884,
      "æĿ¨": 4885,
      "ãĥ©ãĤ¤": 4886,
      "ãģĦãģªãģĦ": 4887,
      "å¸¦çĿĢ": 4888,
      "wel": 4889,
      "ãģķãĤīãģ«": 4890,
      "å¿Ĩ": 4891,
      "Ġforce": 4892,
      "éłĺ": 4893,
      "éĬ": 4894,
      "æĺ¨å¤©": 4895,
      "åĨ°": 4896,
      "åİīå®³": 4897,
      "Ġrelig": 4898,
      "ä»·åĢ¼": 4899,
      "ä¸ŃåĽ½çļĦ": 4900,
      "ze": 4901,
      "éĺ´": 4902,
      "éłŃ": 4903,
      "ãĤĬãģ¾ãģĻãģ¨": 4904,
      "Ġnorth": 4905,
      "éĽħ": 4906,
      "ãģĨãģ¾": 4907,
      "Ġfan": 4908,
      "Ġsad": 4909,
      "ç»ĩ": 4910,
      "éļľ": 4911,
      "åħ¶ä»ĸçļĦ": 4912,
      "éĽ¢": 4913,
      "èĶ": 4914,
      "ä¸įéĶĻ": 4915,
      "ãģĵãģĨãģĦãģĨ": 4916,
      "æĪĳçŁ¥éģĵ": 4917,
      "è®¾è®¡": 4918,
      "è¿Ļä¹Īå¤ļ": 4919,
      "Ġdoll": 4920,
      "Ġnone": 4921,
      "ãģ£ãģ¦ãĤĤ": 4922,
      "Ġcrow": 4923,
      "Ġterri": 4924,
      "æĲľ": 4925,
      "ãģłãģ¨": 4926,
      "äººæ°ĳ": 4927,
      "Ġpop": 4928,
      "è¿ĲåĬ¨": 4929,
      "Ġopened": 4930,
      "Ġcas": 4931,
      "éĤ£ä¸Ģ": 4932,
      "æİ¥ä¸ĭæĿ¥": 4933,
      "æĻĤãģ«": 4934,
      "å·®ä¸įå¤ļ": 4935,
      "Ġconvers": 4936,
      "mit": 4937,
      "é¦ĸæŃĮ": 4938,
      "è¢ĭ": 4939,
      "ãģĹãģ¦ãĤĭ": 4940,
      "ç®¡çĲĨ": 4941,
      "åģļäºĨ": 4942,
      "è§Ĵåº¦": 4943,
      "åĳĬè¯īä½ł": 4944,
      "çĨ±": 4945,
      "è¿Ļæł·çļĦä¸Ģä¸ª": 4946,
      "uct": 4947,
      "è¹": 4948,
      "æ¬²": 4949,
      "Ġhen": 4950,
      "æ¢ħ": 4951,
      "æıĲåĪ°": 4952,
      "çĽĳ": 4953,
      "Ġmiles": 4954,
      "Ġthank": 4955,
      "æ£Ĵ": 4956,
      "ãģ§ãģĻãĤĪ": 4957,
      "Ġsn": 4958,
      "ral": 4959,
      "å²¡": 4960,
      "èª¬": 4961,
      "ãģ¾ãģļãģ¯": 4962,
      "bert": 4963,
      "ä¸»ä¹ī": 4964,
      "æ¹ĸ": 4965,
      "ä¼¸": 4966,
      "æī§": 4967,
      "ä½łä¹Ł": 4968,
      "Ġleg": 4969,
      "Ġposition": 4970,
      "è®¨è®º": 4971,
      "Ġchance": 4972,
      "å¥ĸ": 4973,
      "Ġfood": 4974,
      "ius": 4975,
      "å®ĮæĪĲ": 4976,
      "Ġacqu": 4977,
      "è¿ĻåĦ¿": 4978,
      "å±Ĭ": 4979,
      "åĵªéĩĮ": 4980,
      "ãģ¨ãģĦãģĦãģ¾ãģĻ": 4981,
      "Ġcontinued": 4982,
      "ãĤ·ãĥ£": 4983,
      "io": 4984,
      "yes": 4985,
      "Ġsatisf": 4986,
      "å¯»": 4987,
      "å®¹çĸĳèĢħ": 4988,
      "ushed": 4989,
      "èĻļ": 4990,
      "èµļ": 4991,
      "Ġgard": 4992,
      "Ġexact": 4993,
      "Ġlen": 4994,
      "åľĴ": 4995,
      "ç®Ĺæĺ¯": 4996,
      "Ġnecessary": 4997,
      "ãĥĭãĥ¥": 4998,
      "è¯´åķĬ": 4999,
      "Ġeat": 5000,
      "ggest": 5001,
      "Ġlate": 5002,
      "gan": 5003,
      "ä»Ĭå¤©çļĦ": 5004,
      "çĦ¼": 5005,
      "ming": 5006,
      "ä¿¡æģ¯": 5007,
      "Ġsens": 5008,
      "æ¸¡": 5009,
      "å¸°": 5010,
      "Ġknowledge": 5011,
      "laimed": 5012,
      "Ġprison": 5013,
      "itten": 5014,
      "ounds": 5015,
      "çļĦæľĭåıĭ": 5016,
      "ien": 5017,
      "Ġcomplete": 5018,
      "after": 5019,
      "åĪĿãĤģãģ¦": 5020,
      "Ġmine": 5021,
      "æľīæľī": 5022,
      "ãģŁãģı": 5023,
      "Ġinqu": 5024,
      "Ġresp": 5025,
      "ãģ©ãģĵ": 5026,
      "æĸĩç«ł": 5027,
      "Ġsouth": 5028,
      "Ġwit": 5029,
      "ãģķãĤĮãģ¾ãģĹãģŁ": 5030,
      "aged": 5031,
      "æ°ı": 5032,
      "Ġtest": 5033,
      "inary": 5034,
      "ãĥĴ": 5035,
      "ãĤĦãģĻ": 5036,
      "Ġsin": 5037,
      "åĶ¯": 5038,
      "In": 5039,
      "çĪ¶äº²": 5040,
      "Ġdu": 5041,
      "çĸĹ": 5042,
      "Ġcre": 5043,
      "ä¸Ģä¹Ŀ": 5044,
      "riage": 5045,
      "æŃ»äº¡": 5046,
      "ç¨³": 5047,
      "Ġtor": 5048,
      "Ġlaugh": 5049,
      "éĮ": 5050,
      "åİļ": 5051,
      "Ġfut": 5052,
      "çĴ": 5053,
      "è¦ĸ": 5054,
      "ä¸ĢåĿĹ": 5055,
      "ãĤĪãĤį": 5056,
      "ãĥ¼ãģ®": 5057,
      "æīĢè°ĵçļĦ": 5058,
      "Ġservice": 5059,
      "Ġadded": 5060,
      "Ġlived": 5061,
      "Ġhealth": 5062,
      "Ġbear": 5063,
      "Ġwhatever": 5064,
      "Ġann": 5065,
      "ustom": 5066,
      "ãģĳãģªãģĦ": 5067,
      "æĪĳä»¬è¦ģ": 5068,
      "çĿ£": 5069,
      "çīĻ": 5070,
      "åĮ»çĶŁ": 5071,
      "ene": 5072,
      "ounded": 5073,
      "èĩ³å°ĳ": 5074,
      "åĲĥé¥Ń": 5075,
      "Ġscar": 5076,
      "Ġhistory": 5077,
      "raid": 5078,
      "ä¸įåĲĮçļĦ": 5079,
      "ï¼¯": 5080,
      "èĢĥèĻĳ": 5081,
      "ä½łå¥½": 5082,
      "sh": 5083,
      "Ġsuggest": 5084,
      "Ġintell": 5085,
      "ply": 5086,
      "ï¼©": 5087,
      "å°Ĭ": 5088,
      "ĠV": 5089,
      "Ġevent": 5090,
      "æ¸Ĳ": 5091,
      "Ġori": 5092,
      "éĽĦ": 5093,
      "ãģĵãģĵãģ§": 5094,
      "itions": 5095,
      "çŀ¬": 5096,
      "ä»ĸä¹Ł": 5097,
      "Ġcomfort": 5098,
      "joy": 5099,
      "fered": 5100,
      "Ġoccasion": 5101,
      "Ġdisapp": 5102,
      "Ġprofess": 5103,
      "éĢĨ": 5104,
      "Ġmouth": 5105,
      "Ġbab": 5106,
      "Ġnatural": 5107,
      "Ġprinci": 5108,
      "Ġer": 5109,
      "ãģŁãĤģãģ«": 5110,
      "æŃ£åľ¨": 5111,
      "was": 5112,
      "ç»ĵæĿŁ": 5113,
      "ãģªãģ®": 5114,
      "ãģĹãģ£ãģĭãĤĬ": 5115,
      "è´Ń": 5116,
      "ãĤıãĤĮ": 5117,
      "èµ¶ç´§": 5118,
      "éģĶ": 5119,
      "æĦıåĳ³": 5120,
      "æľ¬ä¹¦": 5121,
      "åıĺå¾Ĺ": 5122,
      "ä¼°": 5123,
      "ä¸Ģæł·çļĦ": 5124,
      "è¿ĳå¹³": 5125,
      "ãģ§ãģ®": 5126,
      "ature": 5127,
      "åĮ»éĻ¢": 5128,
      "Ġmess": 5129,
      "Ġchair": 5130,
      "çº¯": 5131,
      "Ġneither": 5132,
      "ä¸¡": 5133,
      "ãģĵãģ¨ãģ§": 5134,
      "Ġhat": 5135,
      "rupt": 5136,
      "ped": 5137,
      "ä¸Ĭåİ»": 5138,
      "è¾Ľ": 5139,
      "å®¿": 5140,
      "è¿ĺæľīä¸Ģä¸ª": 5141,
      "è¿Ļä¹Īä¸Ģä¸ª": 5142,
      "tend": 5143,
      "Ġprep": 5144,
      "è¡¨çİ°": 5145,
      "æ¯ıä¸ª": 5146,
      "ãģ«ãĤĪãĤĬãģ¾ãģĻãģ¨": 5147,
      "é²ľ": 5148,
      "Ġjour": 5149,
      "äº§çĶŁ": 5150,
      "éĺµ": 5151,
      "Ġthird": 5152,
      "Ġdevelop": 5153,
      "çĲĨçĶ±": 5154,
      "è©¦åĲĪ": 5155,
      "Ġvict": 5156,
      "Ġvolunt": 5157,
      "ãģĤãģĤ": 5158,
      "ä¸ŃéĹ´": 5159,
      "Ġburn": 5160,
      "èĲ¨": 5161,
      "Ġden": 5162,
      "æŃ»äºĨ": 5163,
      "Ġincre": 5164,
      "Ġpolit": 5165,
      "ç¥Ŀ": 5166,
      "åĪ°è¿Ļä¸ª": 5167,
      "angu": 5168,
      "ãģĿãĤĮãģĮ": 5169,
      "å¯¹ä»ĸ": 5170,
      "Ġhung": 5171,
      "Ġid": 5172,
      "ãĥ³ãĥĶ": 5173,
      "ãĤªãĥª": 5174,
      "æĦıä¹ī": 5175,
      "ãĤĤãģĤãĤĭ": 5176,
      "ä¸įæĸŃ": 5177,
      "æĦıè¯Ĩ": 5178,
      "Ġaccording": 5179,
      "pper": 5180,
      "åĨįè§ģ": 5181,
      "Ġfollowing": 5182,
      "åĪ©çĶ¨": 5183,
      "ugg": 5184,
      "çĶµè§Ĩ": 5185,
      "æ°Ĺæ¸©": 5186,
      "ploy": 5187,
      "é¼ĵ": 5188,
      "éĥİ": 5189,
      "light": 5190,
      "å¸ģ": 5191,
      "ç§ĳåŃ¦": 5192,
      "å¾Īå¤ļçļĦ": 5193,
      "ä¸Ĭæµ·": 5194,
      "Ġhig": 5195,
      "ãģŃãģĪ": 5196,
      "æĭ¥": 5197,
      "å§ĳå¨ĺ": 5198,
      "Ġnearly": 5199,
      "èª°": 5200,
      "èİ«": 5201,
      "éªĤ": 5202,
      "çĽ®ãģ®": 5203,
      "åŃĲçļĦ": 5204,
      "æĬ¼": 5205,
      "ceive": 5206,
      "ãĤĴãģĹãģ¦": 5207,
      "æ¼Ĥ": 5208,
      "Ġdelight": 5209,
      "å¤ļãģĦ": 5210,
      "åĭĩ": 5211,
      "ä¾¡": 5212,
      "Ġph": 5213,
      "åĽ½éĻħ": 5214,
      "çĥŁ": 5215,
      "ingly": 5216,
      "éĿ¢å¯¹": 5217,
      "ision": 5218,
      "Ġstates": 5219,
      "ä¸ĵä¸ļ": 5220,
      "æīĺ": 5221,
      "è²·": 5222,
      "just": 5223,
      "Ġdie": 5224,
      "åĪ«çļĦ": 5225,
      "è¡¨è¾¾": 5226,
      "éļĲ": 5227,
      "å®¶æĹı": 5228,
      "å¤§äºº": 5229,
      "æĹłæ³ķ": 5230,
      "Ġwis": 5231,
      "Ġafraid": 5232,
      "æ²¡äºĭ": 5233,
      "ãģªãģŁ": 5234,
      "è½®": 5235,
      "Ġdin": 5236,
      "å¤®": 5237,
      "Ġdesp": 5238,
      "ogn": 5239,
      "night": 5240,
      "Ġdoctor": 5241,
      "åĪĨæŀĲ": 5242,
      "She": 5243,
      "åıĺåĮĸ": 5244,
      "ãģĻãģĶãģı": 5245,
      "Ġok": 5246,
      "ä¸ĭçļĦ": 5247,
      "ä»İæĿ¥": 5248,
      "Ġsupport": 5249,
      "åĽº": 5250,
      "icked": 5251,
      "æĽ´å¤ļçļĦ": 5252,
      "bb": 5253,
      "äºĨè¿Ļä¸ª": 5254,
      "ys": 5255,
      "é¡Ķ": 5256,
      "åİĤ": 5257,
      "ãĥģãĥ¼ãĥł": 5258,
      "åħ·ä½ĵ": 5259,
      "ils": 5260,
      "Ġattention": 5261,
      "Ġconv": 5262,
      "åĽ£": 5263,
      "å¥³åĦ¿": 5264,
      "ãĤĵãģ§ãģĻãĤĪãģŃ": 5265,
      "å¾Ĵ": 5266,
      "è¿ĺæ²¡æľī": 5267,
      "æ¨©": 5268,
      "hood": 5269,
      "è§£éĩĬ": 5270,
      "æİ§åĪ¶": 5271,
      "Ġrepe": 5272,
      "Ġtrust": 5273,
      "Ġsend": 5274,
      "Ġreport": 5275,
      "ãĤ¤ãĥ³ãĥĪ": 5276,
      "å°±æĺ¯åĽłä¸º": 5277,
      "åĩºæĿ¥çļĦ": 5278,
      "ager": 5279,
      "Ġeasy": 5280,
      "Ġrich": 5281,
      "å¹ħ": 5282,
      "ä¸ĢåĪĩ": 5283,
      "æĺİå¤©": 5284,
      "ä¹Łè®¸": 5285,
      "ä½łè¿Ļä¸ª": 5286,
      "è®²çļĦ": 5287,
      "çĽĸ": 5288,
      "ãģķãģ¾": 5289,
      "éĤ£å¤©": 5290,
      "hys": 5291,
      "nor": 5292,
      "Ġpurpose": 5293,
      "rage": 5294,
      "æĬĬä»ĸ": 5295,
      "ighb": 5296,
      "Ġdepart": 5297,
      "æľįåĬ¡": 5298,
      "ä¸Ģä»¶": 5299,
      "æ®º": 5300,
      "éĿŀå¸¸ãģ«": 5301,
      "Ġentered": 5302,
      "äººãģ¯": 5303,
      "ãģĹãģŁãĤī": 5304,
      "æĤª": 5305,
      "è¿ĺåľ¨": 5306,
      "åĳ¢å°±": 5307,
      "ãģĭãĤĤãģĹ": 5308,
      "ãģ£ãģ¦è¨Ģ": 5309,
      "cked": 5310,
      "å¿«ä¹Ĳ": 5311,
      "ãģįãģ®": 5312,
      "olute": 5313,
      "iment": 5314,
      "çı¾åľ¨": 5315,
      "owing": 5316,
      "ell": 5317,
      "èĥ½ä¸įèĥ½": 5318,
      "èªŀ": 5319,
      "ãģªãģ®ãģ§": 5320,
      "dge": 5321,
      "Ġphil": 5322,
      "è´Ŀ": 5323,
      "sequ": 5324,
      "è¦§": 5325,
      "ãĥĩãĤ£": 5326,
      "ãĤĴè¦ĭãģ¦": 5327,
      "Ġdied": 5328,
      "ãĤĴè¡Į": 5329,
      "æļĳ": 5330,
      "éĢĶ": 5331,
      "inct": 5332,
      "Ġtas": 5333,
      "Ġmonths": 5334,
      "Ġremain": 5335,
      "ãģ¾ãĤĭ": 5336,
      "Ġattempt": 5337,
      "ĠK": 5338,
      "ï¼£": 5339,
      "Ġtrouble": 5340,
      "å¹³åı°": 5341,
      "å²Ľ": 5342,
      "Ġtrees": 5343,
      "ä½Ĩæĺ¯ä»ĸ": 5344,
      "åħ³éĶ®": 5345,
      "ä¹łè¿ĳå¹³": 5346,
      "ãģĭãģĳ": 5347,
      "å«Į": 5348,
      "ãģ¾ãģ¾": 5349,
      "Ġsister": 5350,
      "Ġplain": 5351,
      "å¤ĦçĲĨ": 5352,
      "åįı": 5353,
      "çĦ¦": 5354,
      "Ġshad": 5355,
      "Ġtree": 5356,
      "ä¹łæĥ¯": 5357,
      "æĹ¦": 5358,
      "Ġneighb": 5359,
      "è¨Ī": 5360,
      "ãģ¹ãģ¦": 5361,
      "Ġsilence": 5362,
      "éº¦": 5363,
      "ax": 5364,
      "Ġcuri": 5365,
      "æĹłè®º": 5366,
      "Ġopin": 5367,
      "çĽ¸åħ³": 5368,
      "å®®": 5369,
      "çļĦæĥħåĨµ": 5370,
      "Ġwhis": 5371,
      "Ġexperience": 5372,
      "Ġdirect": 5373,
      "oose": 5374,
      "å¹¸ç¦ı": 5375,
      "Ġmeant": 5376,
      "Ġast": 5377,
      "è¯´è¯´": 5378,
      "Ġanx": 5379,
      "ç¦ģ": 5380,
      "åĪĳ": 5381,
      "pecially": 5382,
      "Ġfle": 5383,
      "Ġaccept": 5384,
      "æĻ´": 5385,
      "çµĲæ§ĭ": 5386,
      "Ġdog": 5387,
      "åĲĵ": 5388,
      "Ġoffice": 5389,
      "å·¦åı³": 5390,
      "æ°ĹæĮģãģ¡": 5391,
      "çŃ¾": 5392,
      "Ġhop": 5393,
      "Ġenc": 5394,
      "ples": 5395,
      "å®ŀåľ¨": 5396,
      "Ġengland": 5397,
      "Ġmention": 5398,
      "ãģ«åĲĳ": 5399,
      "Ġant": 5400,
      "ãģ®ãĤĤ": 5401,
      "èĪį": 5402,
      "ï¼¥": 5403,
      "è®¯": 5404,
      "Ġwalked": 5405,
      "éħ¸": 5406,
      "çĨĬ": 5407,
      "åıİ": 5408,
      "Ġmat": 5409,
      "æĽ´ãģ«": 5410,
      "ivid": 5411,
      "å¦ĤæŃ¤": 5412,
      "ãģĮåĩº": 5413,
      "Ġseeing": 5414,
      "Ġfuture": 5415,
      "Ġarmy": 5416,
      "ãĤĴä½ľ": 5417,
      "æĽ´åĬł": 5418,
      "ä¸ģ": 5419,
      "kes": 5420,
      "Ġcircum": 5421,
      "Ġgrou": 5422,
      "Ġsave": 5423,
      "è¾ĵ": 5424,
      "resh": 5425,
      "Ġworking": 5426,
      "å®ĭ": 5427,
      "Ġmusic": 5428,
      "ler": 5429,
      "usion": 5430,
      "ç¥ĸ": 5431,
      "å¸ĪåĤħ": 5432,
      "Ġstraight": 5433,
      "çĽ¸å¯¹": 5434,
      "Ġdifficult": 5435,
      "çĪ±æĥħ": 5436,
      "è¢«å®³": 5437,
      "Ġknows": 5438,
      "ç£¨": 5439,
      "åħĦå¼Ł": 5440,
      "Ġdrink": 5441,
      "æĪĴ": 5442,
      "Ġenjoy": 5443,
      "çļĦæĦŁè§ī": 5444,
      "æĶ¿çŃĸ": 5445,
      "åĢĭ": 5446,
      "èīºæľ¯": 5447,
      "æ²¡éĶĻ": 5448,
      "Ġsoci": 5449,
      "åĳ¢å°±æĺ¯": 5450,
      "ãģ«ãģĹãģ¦": 5451,
      "ç®±": 5452,
      "æ¯ķç«Ł": 5453,
      "ement": 5454,
      "Ġsingle": 5455,
      "Ġpaper": 5456,
      "uit": 5457,
      "ãģıãĤĬ": 5458,
      "èĥľ": 5459,
      "ãģĵãĤĮãģĮ": 5460,
      "ãģŁãĤī": 5461,
      "ãĤ¼": 5462,
      "Ġprocess": 5463,
      "ãģĹãģŁãģĦ": 5464,
      "ively": 5465,
      "ä»ķäºĭ": 5466,
      "Ġstanding": 5467,
      "ï¼ħ": 5468,
      "Ġstop": 5469,
      "åĩłå¹´": 5470,
      "Ġwait": 5471,
      "ãģŁãĤĬ": 5472,
      "åįģäºĶ": 5473,
      "åģ¶": 5474,
      "Ġhall": 5475,
      "Ġsafe": 5476,
      "Ġdress": 5477,
      "è§Ĩé¢ĳ": 5478,
      "Ġdoesn": 5479,
      "åİĭåĬĽ": 5480,
      "çĶ²": 5481,
      "è¦ļ": 5482,
      "ape": 5483,
      "æĦĽ": 5484,
      "Ġlie": 5485,
      "Ġmass": 5486,
      "Ġclot": 5487,
      "aching": 5488,
      "ç»Īäºİ": 5489,
      "æĳĩ": 5490,
      "é£²": 5491,
      "å°ıåŃ©": 5492,
      "Ġdeg": 5493,
      "Ġpleasure": 5494,
      "Ġimm": 5495,
      "ä¹¡": 5496,
      "Ġisland": 5497,
      "çĸ¼": 5498,
      "çĶĺ": 5499,
      "æĪĳä¸įçŁ¥éģĵ": 5500,
      "çĶ·çĶŁ": 5501,
      "Ġlaid": 5502,
      "lic": 5503,
      "å·ĿæĻ®": 5504,
      "ä¸Ģè¾¹": 5505,
      "æĭħå¿ĥ": 5506,
      "èµµ": 5507,
      "Ġlangu": 5508,
      "ãĥ©ãĥ³ãĥ": 5509,
      "Ġjack": 5510,
      "ãĤĴæĮģ": 5511,
      "ä»ĸè¿Ļä¸ª": 5512,
      "å¤§ãģįãģª": 5513,
      "åĬ³": 5514,
      "ä¸ĢæŃ¥": 5515,
      "ä¾µ": 5516,
      "amed": 5517,
      "èħ¿": 5518,
      "ãģĮãģĤãģ£ãģŁ": 5519,
      "çļĦå¯¹": 5520,
      "Ġtro": 5521,
      "å½ĵå¹´": 5522,
      "åŃ¤": 5523,
      "ondon": 5524,
      "cket": 5525,
      "Ġunto": 5526,
      "ä¼ļç¤¾": 5527,
      "æĺ¨æĹ¥": 5528,
      "Ġviol": 5529,
      "Ġrecogn": 5530,
      "Ġprince": 5531,
      "ä»ĸå°±æĺ¯": 5532,
      "hapter": 5533,
      "è¡Įä¸ļ": 5534,
      "ä½łæľī": 5535,
      "Ġwest": 5536,
      "iff": 5537,
      "æĤ£": 5538,
      "å°±æ²¡æľī": 5539,
      "cal": 5540,
      "bo": 5541,
      "jo": 5542,
      "sy": 5543,
      "ãĤ·ãĥ¥": 5544,
      "ãģĻãģĲ": 5545,
      "ãģ§ãģ¯ãģªãģĦ": 5546,
      "ãĥĥãĥģ": 5547,
      "èģ·": 5548,
      "ï¼²": 5549,
      "ä¸Ģå¼Ģå§ĭ": 5550,
      "éŀ": 5551,
      "æĪĳåİ»": 5552,
      "ä¼¯": 5553,
      "ä¸ĢçĽ´åľ¨": 5554,
      "æ¸Ľ": 5555,
      "è¾¼ãģ¿": 5556,
      "Ġborn": 5557,
      "Ġfrench": 5558,
      "Ġgrace": 5559,
      "çĭĤ": 5560,
      "ãģĹãģ¾ãģĨ": 5561,
      "æĿ¡ä»¶": 5562,
      "è¿Ļä½į": 5563,
      "Ġshar": 5564,
      "Ġoutside": 5565,
      "è¿Ļä¸¤": 5566,
      "å·§": 5567,
      "è´´": 5568,
      "Ġexample": 5569,
      "æĶ¾åľ¨": 5570,
      "Ġlength": 5571,
      "Ġheavy": 5572,
      "æ¯ıæ¬¡": 5573,
      "è¸ı": 5574,
      "anced": 5575,
      "å¥ĩæĢª": 5576,
      "Ġpull": 5577,
      "Ġneg": 5578,
      "å®ģ": 5579,
      "æ¶¨": 5580,
      "ç³»ç»Ł": 5581,
      "reme": 5582,
      "Ġfigure": 5583,
      "Ġgentleman": 5584,
      "æķ°æį®": 5585,
      "å¤©å¤©": 5586,
      "èĭ±åĽ½": 5587,
      "Ġproble": 5588,
      "Ġalthough": 5589,
      "ok": 5590,
      "åĨł": 5591,
      "ator": 5592,
      "Ġnar": 5593,
      "ires": 5594,
      "Ġdesire": 5595,
      "ãģĬãģĦãģĹãģĦ": 5596,
      "éĥ½è¦ģ": 5597,
      "ç»Ħç»ĩ": 5598,
      "erv": 5599,
      "æ¤į": 5600,
      "ç¼ĺ": 5601,
      "çļĦæĸ¹å¼ı": 5602,
      "å¥½åĲ§": 5603,
      "ãĥ¼ãĥ³": 5604,
      "ï¼¢": 5605,
      "ãĤ¹ãģ®": 5606,
      "ray": 5607,
      "Ġnews": 5608,
      "åħ¬ä¼Ĺ": 5609,
      "å®¶çļĦ": 5610,
      "çħ§çīĩ": 5611,
      "Ġisn": 5612,
      "Ġstopped": 5613,
      "sa": 5614,
      "Ġloved": 5615,
      "atic": 5616,
      "æĥ³è±¡": 5617,
      "æĮĤ": 5618,
      "ä¸įä¸į": 5619,
      "æľĢåĪĿ": 5620,
      "Ġemb": 5621,
      "Ġfing": 5622,
      "Ġsmile": 5623,
      "åł´åĲĪ": 5624,
      "Ġinstead": 5625,
      "ãĤĪãĤįãģĹãģı": 5626,
      "å¤§äºĭ": 5627,
      "ä½łçİ°åľ¨": 5628,
      "å¥Ī": 5629,
      "æĺ¯è¿Ļä¸ª": 5630,
      "Ġslight": 5631,
      "éģĹ": 5632,
      "Ġstrength": 5633,
      "å¹²åĺĽ": 5634,
      "ä¸¢": 5635,
      "æĪ»": 5636,
      "éĥ½åı¯ä»¥": 5637,
      "ãģĭãĤīãģ®": 5638,
      "Ġqueen": 5639,
      "è·¯ä¸Ĭ": 5640,
      "Ġir": 5641,
      "çµ±éłĺ": 5642,
      "å³°": 5643,
      "Ġcaught": 5644,
      "å¤§çµ±éłĺ": 5645,
      "Ġslowly": 5646,
      "å¹¶ä¸į": 5647,
      "Ġquickly": 5648,
      "æľīçļĦæĹ¶åĢĻ": 5649,
      "ä¹ĭåĲİåĳ¢": 5650,
      "Ġrom": 5651,
      "Ġboard": 5652,
      "æ¦Ĥå¿µ": 5653,
      "Ġboys": 5654,
      "èĢħãģ®": 5655,
      "åı¦å¤ĸä¸Ģä¸ª": 5656,
      "ãĥĨãĤ£": 5657,
      "ãģļãģ£ãģ¨": 5658,
      "ç³ĸ": 5659,
      "è³ª": 5660,
      "æľĢå¤§": 5661,
      "åĪ¤æĸŃ": 5662,
      "èĢ¶": 5663,
      "æĪĳä»¬çİ°åľ¨": 5664,
      "æ°ĳä¸»": 5665,
      "åĲĲ": 5666,
      "æĳĨ": 5667,
      "é³": 5668,
      "ãģµãģĨãģ«": 5669,
      "Ġattack": 5670,
      "ãģ§ãģĹãĤĩãģĨãģĭ": 5671,
      "å¹º": 5672,
      "Ġfool": 5673,
      "å®¡": 5674,
      "ä½łåİ»": 5675,
      "æĪĳå°±æĺ¯": 5676,
      "è¦ģä¸į": 5677,
      "Ġweak": 5678,
      "ãģĦãģĭ": 5679,
      "äºĨä¸Ģä¸ĭ": 5680,
      "Ġlips": 5681,
      "çĪ±çļĦ": 5682,
      "ç»Ŀå¯¹": 5683,
      "Ġrob": 5684,
      "åĽŀçŃĶ": 5685,
      "ãģ¨æĢĿãģ£ãģ¦": 5686,
      "ç½ĳç»ľ": 5687,
      "æĿ¥æĿ¥": 5688,
      "Ġdrew": 5689,
      "éĮ²": 5690,
      "çĽ®çļĦ": 5691,
      "orge": 5692,
      "åħ´è¶£": 5693,
      "ãģ«ãĤĪãģ£ãģ¦": 5694,
      "mber": 5695,
      "ç±»ä¼¼": 5696,
      "ãģĿãģĨãģªãĤĵãģ§ãģĻ": 5697,
      "ixed": 5698,
      "Ġdistance": 5699,
      "All": 5700,
      "åįĪå¾Į": 5701,
      "ãģªãģ©ãģ®": 5702,
      "é¢Ĩå¯¼": 5703,
      "æľĢç»Ī": 5704,
      "Ġproceed": 5705,
      "Ġsnow": 5706,
      "è¡ĵ": 5707,
      "ãģ«ãĤĪãĤĭ": 5708,
      "resent": 5709,
      "èģļ": 5710,
      "welve": 5711,
      "ä½łçŁ¥éģĵåĲĹ": 5712,
      "ä¸Ģä½į": 5713,
      "Ġremark": 5714,
      "æĴ®": 5715,
      "åĢ¤": 5716,
      "ä½łèĩªå·±": 5717,
      "ãģ«ãģªãĤĬãģ¾ãģĹãģŁ": 5718,
      "ãģĭãĤīãģ¯": 5719,
      "åĶ®": 5720,
      "Ġlearn": 5721,
      "Ġgun": 5722,
      "å¹¶ä¸Ķ": 5723,
      "They": 5724,
      "ãģ®ãģ§ãģĻ": 5725,
      "ift": 5726,
      "Ġeffort": 5727,
      "Ġbeauty": 5728,
      "èµŀ": 5729,
      "æĢ»æĺ¯": 5730,
      "éĢ®": 5731,
      "Ġthoughts": 5732,
      "Ġlives": 5733,
      "çıį": 5734,
      "Ġphys": 5735,
      "éī": 5736,
      "Ġbroken": 5737,
      "ãĤ¹ãĤ¯": 5738,
      "els": 5739,
      "è®¡åĪĴ": 5740,
      "Ġfas": 5741,
      "å¹¶æ²¡æľī": 5742,
      "Ġwritten": 5743,
      "å°Ŀ": 5744,
      "Ġcouldn": 5745,
      "åľ¨æĪĳ": 5746,
      "Ġemploy": 5747,
      "äººä»¬": 5748,
      "è¿Ļæł·ä¸Ģä¸ª": 5749,
      "åĤ»": 5750,
      "gress": 5751,
      "Ġmoved": 5752,
      "bec": 5753,
      "Ġsitting": 5754,
      "äºĭæķħ": 5755,
      "å®¾": 5756,
      "åĩĢ": 5757,
      "ching": 5758,
      "æľīäºĨ": 5759,
      "æĿ¥åĪ°": 5760,
      "ãģĤãģªãģŁ": 5761,
      "rief": 5762,
      "æĬ¢": 5763,
      "Ġbless": 5764,
      "Ġways": 5765,
      "Ġfat": 5766,
      "ãĥ³ãĥĲ": 5767,
      "Ġspace": 5768,
      "Ġsit": 5769,
      "ç¾İåĽ½çļĦ": 5770,
      "ï¼«": 5771,
      "ä¸Ģéĥ¨": 5772,
      "Ġgrew": 5773,
      "Ġbox": 5774,
      "çĬ¶æħĭ": 5775,
      "æľŁçļĦ": 5776,
      "æĻĤä»£": 5777,
      "è±ª": 5778,
      "é»Ĵ": 5779,
      "è¿ĩçļĦ": 5780,
      "åĩłå¤©": 5781,
      "Ġguess": 5782,
      "æĲŃ": 5783,
      "æĭ¼": 5784,
      "çļĦè¯´": 5785,
      "Ġinflu": 5786,
      "ä¹Łå°±": 5787,
      "èĻİ": 5788,
      "ãĤĴãģĬ": 5789,
      "Ġimmediately": 5790,
      "æįľ": 5791,
      "Ġmeas": 5792,
      "çĻĤ": 5793,
      "ç§Ł": 5794,
      "è§Ĵèī²": 5795,
      "Ġcontro": 5796,
      "éĴĪ": 5797,
      "ãģŁãģ¡ãģĮ": 5798,
      "ä½łè§īå¾Ĺ": 5799,
      "Ġrock": 5800,
      "rap": 5801,
      "Ġforget": 5802,
      "æºĸ": 5803,
      "Ġgreater": 5804,
      "ç©ºéĹ´": 5805,
      "çİ°å®ŀ": 5806,
      "Ġger": 5807,
      "bling": 5808,
      "Ġgoes": 5809,
      "ĠOK": 5810,
      "Ġbeginning": 5811,
      "Ġgar": 5812,
      "æ³ķå¾ĭ": 5813,
      "ä¸¥éĩį": 5814,
      "å¦Ļ": 5815,
      "è¯´ä»ĸ": 5816,
      "å¾ģ": 5817,
      "ç»¿": 5818,
      "ald": 5819,
      "ç¨įå¾®": 5820,
      "Ġstone": 5821,
      "look": 5822,
      "Ġbelong": 5823,
      "æİ¥è§¦": 5824,
      "ãĥĹãĥŃ": 5825,
      "Ġcontr": 5826,
      "æ¯įäº²": 5827,
      "Ġcost": 5828,
      "åĥį": 5829,
      "Ġorigin": 5830,
      "æ±ł": 5831,
      "ãģ§ãģĹãĤĩãģĨ": 5832,
      "Ġfloor": 5833,
      "æ³¡": 5834,
      "æ¸Ī": 5835,
      "den": 5836,
      "ãģĮè¦ĭ": 5837,
      "ids": 5838,
      "Ġmiddle": 5839,
      "åĽłä¸ºæĪĳä»¬": 5840,
      "çĽ´æĴŃ": 5841,
      "åĲĪä½ľ": 5842,
      "enth": 5843,
      "uro": 5844,
      "Ġcru": 5845,
      "æĹģè¾¹": 5846,
      "llen": 5847,
      "ä¸įåı¯": 5848,
      "Ġlearned": 5849,
      "dered": 5850,
      "ument": 5851,
      "æĮīçħ§": 5852,
      "å®³æĢķ": 5853,
      "Ġwrite": 5854,
      "åľ°åĮº": 5855,
      "ãģĶè¦§": 5856,
      "æĺ¯ä»ĸ": 5857,
      "åĬ²": 5858,
      "Ġquestions": 5859,
      "aded": 5860,
      "Ġgarden": 5861,
      "There": 5862,
      "å¼·ãģĦ": 5863,
      "æł¹æį®": 5864,
      "Ġimposs": 5865,
      "gar": 5866,
      "Ġtwelve": 5867,
      "æĺİæĺ¾": 5868,
      "çļĦè¿ĩç¨ĭ": 5869,
      "Ġcloud": 5870,
      "Ġhardly": 5871,
      "Ġwouldn": 5872,
      "Ġund": 5873,
      "çĤ¸": 5874,
      "Ġyouth": 5875,
      "ghed": 5876,
      "å°±è·Ł": 5877,
      "èĴĻ": 5878,
      "æĺ¯è¿Ļæł·": 5879,
      "åįĥä¸ĩ": 5880,
      "sc": 5881,
      "ä¼łç»Ł": 5882,
      "acy": 5883,
      "æĪ´": 5884,
      "æ·¡": 5885,
      "å¤§ä¸Īå¤«": 5886,
      "isted": 5887,
      "Ġdemand": 5888,
      "ç§ģãģ¯": 5889,
      "åºı": 5890,
      "æ»ĳ": 5891,
      "ç¿Ĵ": 5892,
      "Ġcircumst": 5893,
      "ãģĿãĤĮãĤĴ": 5894,
      "èİ·å¾Ĺ": 5895,
      "è¿ĺä¸į": 5896,
      "ç§¦": 5897,
      "¹æŀľ": 5898,
      "æĸ¹ãģĮ": 5899,
      "å¾Īå¤§": 5900,
      "Ġliber": 5901,
      "çĽĹ": 5902,
      "Ġevil": 5903,
      "è®©äºº": 5904,
      "que": 5905,
      "ãģĿãĤĮãģ§ãģ¯": 5906,
      "rodu": 5907,
      "èģĬå¤©": 5908,
      "æķ¬": 5909,
      "ãģĺãĤĥãģªãģĦãģ§ãģĻãģĭ": 5910,
      "å°ıçļĦ": 5911,
      "ä½Ĳ": 5912,
      "ãĥľãĥ¼ãĥ«": 5913,
      "æĬľ": 5914,
      "miss": 5915,
      "è¨ª": 5916,
      "Ġmoon": 5917,
      "Ġwide": 5918,
      "æīĵå¼Ģ": 5919,
      "ãģ¤ãģ®": 5920,
      "åĨĴ": 5921,
      "åĽĽä¸ª": 5922,
      "Ġstar": 5923,
      "Ġsimple": 5924,
      "å¤§éĩı": 5925,
      "Ġwarm": 5926,
      "åħ¶å®ŀæĪĳ": 5927,
      "esus": 5928,
      "çļĦæĹ¶åĢĻåĳ¢": 5929,
      "Ġfilled": 5930,
      "èĩªåĪĨãģ®": 5931,
      "éĤ£è¿Ļä¸ª": 5932,
      "Ġespecially": 5933,
      "Ġplaced": 5934,
      "Ġdollars": 5935,
      "Ġmaybe": 5936,
      "å¾Ĳ": 5937,
      "cil": 5938,
      "çĶ¨çļĦ": 5939,
      "éģķãģĨ": 5940,
      "wise": 5941,
      "Ġmary": 5942,
      "ãģĭãĤı": 5943,
      "çľł": 5944,
      "çİ°åľº": 5945,
      "éĸĢ": 5946,
      "æ°ĹãģĮ": 5947,
      "osp": 5948,
      "ãģķãĤĵãģ«": 5949,
      "æĢĴ": 5950,
      "anc": 5951,
      "ãģĤãĤĬãģĮãģ¨ãģĨãģĶãģĸãģĦãģ¾ãģĻ": 5952,
      "Ġhell": 5953,
      "Ġsitu": 5954,
      "åºĨ": 5955,
      "Ġfamil": 5956,
      "iers": 5957,
      "åĲµ": 5958,
      "ãĤ¿ãĤ¤ãĥ": 5959,
      "è¿ĺæ²¡": 5960,
      "çľŁå®ŀ": 5961,
      "ption": 5962,
      "äºĪæĥ³": 5963,
      "å·¡": 5964,
      "å¯¾çŃĸ": 5965,
      "Ġgirls": 5966,
      "å°±æĺ¯åĳĥ": 5967,
      "Ġwaiting": 5968,
      "ç»ıéªĮ": 5969,
      "åīįãģ®": 5970,
      "ä¸īå¹´": 5971,
      "æĹ¥æľ¬ãģ®": 5972,
      "Ġmain": 5973,
      "ä¸Ģç·Ĵãģ«": 5974,
      "vere": 5975,
      "ãģįãģŁãģĦ": 5976,
      "Ġbelow": 5977,
      "è®©æĪĳä»¬": 5978,
      "Ġpresence": 5979,
      "åĳ¦": 5980,
      "Ġspring": 5981,
      "åİħ": 5982,
      "oned": 5983,
      "ãģªãģ£ãģ¦": 5984,
      "Ġhy": 5985,
      "Ġsor": 5986,
      "æ¯ıä¸ªäºº": 5987,
      "from": 5988,
      "Ġiss": 5989,
      "Ġboat": 5990,
      "å¯¼èĩ´": 5991,
      "æĹ¥åŃĲ": 5992,
      "æĺ¯å¾Ī": 5993,
      "Ġplaces": 5994,
      "Ġarg": 5995,
      "è¿Ļæĺ¯ä¸Ģä¸ª": 5996,
      "Ġremained": 5997,
      "Ġcompl": 5998,
      "æĪĲéķ¿": 5999,
      "æĢ»ç»Ł": 6000,
      "Ġdinner": 6001,
      "åĩłä¹İ": 6002,
      "çĸ«æĥħ": 6003,
      "cies": 6004,
      "Ġvolunteer": 6005,
      "Ġbrown": 6006,
      "æĲ¬": 6007,
      "ortun": 6008,
      "ãģ£ãģŁãĤĬ": 6009,
      "åĪ°çļĦ": 6010,
      "Ġkill": 6011,
      "æĥľ": 6012,
      "ç»ıè¿ĩ": 6013,
      "æ´ŀ": 6014,
      "æĸ°ãģŁ": 6015,
      "èį£": 6016,
      "ä¸įæĥ³": 6017,
      "æĺ¯éĿŀå¸¸": 6018,
      "fer": 6019,
      "æķĮ": 6020,
      "Ġsociety": 6021,
      "sem": 6022,
      "åĿĩ": 6023,
      "æĸĻçĲĨ": 6024,
      "ä»Ļ": 6025,
      "ãģªãģĦãģ¨": 6026,
      "æĪĳæľī": 6027,
      "æĳ©": 6028,
      "åĺī": 6029,
      "æ¡Į": 6030,
      "å§Ĳå§Ĳ": 6031,
      "é¾Ħ": 6032,
      "zz": 6033,
      "æĽľæĹ¥": 6034,
      "Ġdat": 6035,
      "some": 6036,
      "Ġgall": 6037,
      "ä¹ĭå¤ĸ": 6038,
      "å»ºè®®": 6039,
      "Ġtoday": 6040,
      "éĩįæĸ°": 6041,
      "Ġworks": 6042,
      "ä¿ĿæĬ¤": 6043,
      "æĳĦ": 6044,
      "åĪ°çİ°åľ¨": 6045,
      "Ġsand": 6046,
      "æĳ¸": 6047,
      "åĩ¡": 6048,
      "Ġbreath": 6049,
      "iam": 6050,
      "under": 6051,
      "Ġholy": 6052,
      "Ġfly": 6053,
      "åĲ´": 6054,
      "åī©": 6055,
      "éĤ£ä¸ªéĤ£ä¸ª": 6056,
      "Ġrap": 6057,
      "ãĥ³ãĥĶãĥĥãĤ¯": 6058,
      "ected": 6059,
      "Ġsick": 6060,
      "å¹»": 6061,
      "Ġwasn": 6062,
      "çªĹ": 6063,
      "ãĤĵãģ«": 6064,
      "çģŃ": 6065,
      "æµ®": 6066,
      "æīĢä»¥ä»ĸ": 6067,
      "iod": 6068,
      "éĽ²": 6069,
      "Ġglass": 6070,
      "æķĻæİĪ": 6071,
      "Ġbattle": 6072,
      "Ġlift": 6073,
      "Ġsky": 6074,
      "Ġuncle": 6075,
      "èĿ": 6076,
      "Ġdecla": 6077,
      "è¬": 6078,
      "Ġban": 6079,
      "è¿Ļä¸ªåĳĥ": 6080,
      "èĳĹ": 6081,
      "æĹ¢çĦ¶": 6082,
      "éĹŃ": 6083,
      "æ²Ł": 6084,
      "å®¶äºº": 6085,
      "è¦ģæĺ¯": 6086,
      "å´©": 6087,
      "å£ģ": 6088,
      "ãģĬãĤĬ": 6089,
      "èī²çļĦ": 6090,
      "é«ĺãģĦ": 6091,
      "æ½ľ": 6092,
      "Ġpress": 6093,
      "å¤ĸéĿ¢": 6094,
      "äº¤æµģ": 6095,
      "çĽŁ": 6096,
      "çŁ¥è¯Ĩ": 6097,
      "Ġstruck": 6098,
      "é¢Ŀ": 6099,
      "Ġenemy": 6100,
      "æĢİä¹Īè¯´": 6101,
      "Ġconversation": 6102,
      "æĮĻ": 6103,
      "Ġpun": 6104,
      "Ġfla": 6105,
      "é§ħ": 6106,
      "å¤§åĵ¥": 6107,
      "inite": 6108,
      "olved": 6109,
      "éĤ£å°±æĺ¯": 6110,
      "Ġformer": 6111,
      "rit": 6112,
      "Ġoccup": 6113,
      "Ġoper": 6114,
      "å°ıæĹ¶åĢĻ": 6115,
      "why": 6116,
      "éĥ½æ²¡": 6117,
      "éĤ£ä¹Īå¤ļ": 6118,
      "åºģ": 6119,
      "Ġshowed": 6120,
      "æŁĶ": 6121,
      "Ġsus": 6122,
      "ãģıãĤĮãĤĭ": 6123,
      "çľĭäºĨ": 6124,
      "è¦ģåİ»": 6125,
      "ences": 6126,
      "Ġgame": 6127,
      "ç¬¬äºĮä¸ª": 6128,
      "Ġsixty": 6129,
      "å¥ı": 6130,
      "had": 6131,
      "oured": 6132,
      "ãģªãĤĵãģ§": 6133,
      "ribut": 6134,
      "Ġbound": 6135,
      "pan": 6136,
      "Ġbooks": 6137,
      "åŁ¹": 6138,
      "æ©ĭ": 6139,
      "Ġaction": 6140,
      "Ġamerican": 6141,
      "é«ĺåħ´": 6142,
      "çļĦçļĦ": 6143,
      "noon": 6144,
      "iced": 6145,
      "ãĥ¼ãĥŀ": 6146,
      "éģĵçĲĨ": 6147,
      "Ġforgot": 6148,
      "éłĤ": 6149,
      "old": 6150,
      "ä½³": 6151,
      "Ġopportun": 6152,
      "åĬ¨çī©": 6153,
      "å°±å¾Ī": 6154,
      "acher": 6155,
      "ä¼Ł": 6156,
      "è§Ĥä¼Ĺ": 6157,
      "ests": 6158,
      "ç»ĻæĪĳä»¬": 6159,
      "Ġciv": 6160,
      "è¿Ļä¸ªéĹ®é¢ĺ": 6161,
      "Ġfifteen": 6162,
      "Ġsummer": 6163,
      "Ġlaughed": 6164,
      "å¹¿åĳĬ": 6165,
      "ãģĵãģ¡ãĤīãģ®": 6166,
      "Ġvan": 6167,
      "Ġimpossible": 6168,
      "bri": 6169,
      "Chapter": 6170,
      "Ġabsolute": 6171,
      "Ġcrowd": 6172,
      "Ġgiving": 6173,
      "Ġsocial": 6174,
      "yal": 6175,
      "ãģ®ãģ«": 6176,
      "ãĥ¼ãĥģ": 6177,
      "ç«ŀ": 6178,
      "åĤ¬": 6179,
      "urs": 6180,
      "Ġfresh": 6181,
      "çļĦè¯Ŀåĳ¢": 6182,
      "éĺħ": 6183,
      "Ġtears": 6184,
      "æľīæĦıæĢĿ": 6185,
      "Ġvirt": 6186,
      "æľĭåıĭä»¬": 6187,
      "Ġexactly": 6188,
      "ç´¹": 6189,
      "ãģķãĤĮãģ¦ãģĦãĤĭ": 6190,
      "Ġobt": 6191,
      "Ġrunning": 6192,
      "lo": 6193,
      "çļĦåİ»": 6194,
      "ãģ§ãģĹãĤĩ": 6195,
      "Ġperiod": 6196,
      "Ġsong": 6197,
      "orses": 6198,
      "çģ½": 6199,
      "éĢ®æįķ": 6200,
      "é½Ĳ": 6201,
      "You": 6202,
      "Ġforest": 6203,
      "ãģĭãģĦ": 6204,
      "wor": 6205,
      "æľĹ": 6206,
      "ç´¹ä»ĭ": 6207,
      "åĿļæĮģ": 6208,
      "æ²¡æľīåĬŀæ³ķ": 6209,
      "Ġnice": 6210,
      "Ġorgan": 6211,
      "Ġball": 6212,
      "å¯¹ä½ł": 6213,
      "ä¸ĩåĨĨ": 6214,
      "ä¸įè§ģ": 6215,
      "ä¸Ńãģ§": 6216,
      "å¡ŀ": 6217,
      "Ġwrote": 6218,
      "äººçī©": 6219,
      "Ġprev": 6220,
      "Ġpiece": 6221,
      "æĿ°": 6222,
      "äºĨå¾Īå¤ļ": 6223,
      "ibly": 6224,
      "Ġexclaimed": 6225,
      "çķĻè¨Ģ": 6226,
      "çĦ¶åĲİæĪĳå°±": 6227,
      "æİ¥çĿĢ": 6228,
      "çĮ®": 6229,
      "ä¼ļä¸įä¼ļ": 6230,
      "èģĶç³»": 6231,
      "å´İ": 6232,
      "èįĲ": 6233,
      "ãģķãĤĮãģ¦ãģĦãģ¾ãģĻ": 6234,
      "Ġcab": 6235,
      "Ġlondon": 6236,
      "æĥ³æĥ³": 6237,
      "ä½ıäºĨ": 6238,
      "ship": 6239,
      "çī¹åĪ«çļĦ": 6240,
      "çµĲæŀľ": 6241,
      "fection": 6242,
      "Ġunivers": 6243,
      "ãģĵãĤĮãģ¾ãģ§": 6244,
      "éĺ¶æ®µ": 6245,
      "å¤ªå¤ª": 6246,
      "than": 6247,
      "è¦ı": 6248,
      "ãģģ": 6249,
      "Ġspot": 6250,
      "è¿ª": 6251,
      "Ġgri": 6252,
      "ãĤĴåĩº": 6253,
      "ãĥ¼ãĥĦ": 6254,
      "yed": 6255,
      "çļĦå¿ĥ": 6256,
      "ä¹Łå¾Ī": 6257,
      "è½½": 6258,
      "æĪĳä¸Ģ": 6259,
      "åħŃåįģ": 6260,
      "ech": 6261,
      "Ġrepresent": 6262,
      "åĪ·": 6263,
      "ĠåķĬ": 6264,
      "çĽ®æłĩ": 6265,
      "ãĤıãĤĮãģŁ": 6266,
      "ä»Ģä¹ĪæĹ¶åĢĻ": 6267,
      "Ġstream": 6268,
      "aled": 6269,
      "èĥĸ": 6270,
      "ãĤĤãĤĵ": 6271,
      "å°±æĺ¯éĤ£ä¸ª": 6272,
      "ãģĮåĩºãģ¦": 6273,
      "å¤§éĥ¨åĪĨ": 6274,
      "Ġnote": 6275,
      "æ´¥": 6276,
      "Ġopinion": 6277,
      "æķı": 6278,
      "ä¿Ħ": 6279,
      "è´£ä»»": 6280,
      "æĪĺäºī": 6281,
      "osing": 6282,
      "ãĤıãĤĮãĤĭ": 6283,
      "åĩºçļĦ": 6284,
      "çİ°åľ¨çļĦ": 6285,
      "åĸĬ": 6286,
      "Ġraised": 6287,
      "Ġmarried": 6288,
      "éŃĤ": 6289,
      "å¿ĺäºĨ": 6290,
      "ference": 6291,
      "Ġpap": 6292,
      "Ġduty": 6293,
      "å¡Ķ": 6294,
      "Ġbecom": 6295,
      "çĽ¸æīĭ": 6296,
      "è·ŁçĿĢ": 6297,
      "Ġclim": 6298,
      "ãĤĦãĤĬ": 6299,
      "åįĪåīį": 6300,
      "Ġindivid": 6301,
      "ç§ĳæĬĢ": 6302,
      "Ġenter": 6303,
      "ãģ»ãģĹãģĦ": 6304,
      "è·ŁæĪĳè¯´": 6305,
      "Ġeduc": 6306,
      "Ġguard": 6307,
      "because": 6308,
      "Ġbroad": 6309,
      "åĵªä¸ª": 6310,
      "åĬ±": 6311,
      "onna": 6312,
      "æĺ¯è°ģ": 6313,
      "çĮª": 6314,
      "æ¼Ĥäº®": 6315,
      "æľŁèĬĤçĽ®": 6316,
      "Ġspeaking": 6317,
      "Ġconcl": 6318,
      "Ġlisten": 6319,
      "å®ļçļĦ": 6320,
      "Ġminute": 6321,
      "é«ĺæł¡": 6322,
      "olution": 6323,
      "å®ľ": 6324,
      "è¯º": 6325,
      "åĽłä¸ºä½ł": 6326,
      "æĪ¸": 6327,
      "ãĥ¼ãģĮ": 6328,
      "ä»ĸæľī": 6329,
      "Ġafternoon": 6330,
      "ãĤ¤ãĤ¹": 6331,
      "tw": 6332,
      "ä¹Łå°±æĺ¯è¯´": 6333,
      "ï¼°": 6334,
      "Ġig": 6335,
      "åĽ²": 6336,
      "ãģıãĤĮ": 6337,
      "ä¸ĢæĿ¡": 6338,
      "äººåĳĺ": 6339,
      "çµĤãĤı": 6340,
      "å¤§äºĨ": 6341,
      "èĵĿ": 6342,
      "æĬĳ": 6343,
      "Ġhath": 6344,
      "æ³ª": 6345,
      "å§¨": 6346,
      "åĪĽä¸ļ": 6347,
      "Ġep": 6348,
      "ãĤīãģ£ãģĹãĤĥ": 6349,
      "ency": 6350,
      "Ġdam": 6351,
      "set": 6352,
      "Ġbank": 6353,
      "iety": 6354,
      "èŃĺ": 6355,
      "Ġdeterm": 6356,
      "åĬĽéĩı": 6357,
      "åĲ¯": 6358,
      "Ġlu": 6359,
      "éłĳ": 6360,
      "Ġgaz": 6361,
      "æĢĿèĢĥ": 6362,
      "å°¤åħ¶æĺ¯": 6363,
      "ãģĤãĤĬãģ¾ãģĽãĤĵ": 6364,
      "åĴĸ": 6365,
      "æ§ĺåŃĲ": 6366,
      "åĩºæĿ¥äºĨ": 6367,
      "èħ¾": 6368,
      "Ġpot": 6369,
      "ä¾ĭåŃĲ": 6370,
      "è³ĩ": 6371,
      "è«ĩ": 6372,
      "str": 6373,
      "ãĥ¼ãĤĴ": 6374,
      "Ġsli": 6375,
      "äºĶå¹´": 6376,
      "å¸Ĥãģ®": 6377,
      "ãģ©ãģĨãģĦãģĨ": 6378,
      "Ġlooks": 6379,
      "Ġfro": 6380,
      "æģ¨": 6381,
      "ev": 6382,
      "Ġthick": 6383,
      "æľĢå¤§çļĦ": 6384,
      "Ġdread": 6385,
      "Ġscarce": 6386,
      "å¢Ļ": 6387,
      "çĮĽ": 6388,
      "Ġspecial": 6389,
      "aw": 6390,
      "Ġstrugg": 6391,
      "èĪĴæľį": 6392,
      "ãģ¯ãĤĬ": 6393,
      "Ġextra": 6394,
      "æ¯İ": 6395,
      "Ġrefle": 6396,
      "Ġbeat": 6397,
      "ãģ«åĩº": 6398,
      "åħĪãģ»ãģ©": 6399,
      "Ġsepar": 6400,
      "Ġones": 6401,
      "æ½®": 6402,
      "aly": 6403,
      "åľ¨éĤ£ä¸ª": 6404,
      "Ġhorses": 6405,
      "ä¼¦": 6406,
      "these": 6407,
      "è¡ĮäºĨ": 6408,
      "Ġbeside": 6409,
      "å¯¹è¿Ļä¸ª": 6410,
      "Ġarr": 6411,
      "éĤ£æł·": 6412,
      "ä¸įä»ħ": 6413,
      "çı¾åł´": 6414,
      "åľ°åŁŁ": 6415,
      "èĲ½ãģ¡": 6416,
      "æīĢä»¥æĪĳä»¬": 6417,
      "çĸ¯": 6418,
      "å°±è§īå¾Ĺ": 6419,
      "éĢłæĪĲ": 6420,
      "æĺłåĥı": 6421,
      "Ġjourney": 6422,
      "æľīä¸Ģå¤©": 6423,
      "çĬ¶åĨµ": 6424,
      "åĽ½çļĦ": 6425,
      "åįģåĪĨ": 6426,
      "ãģªãģ©ãĤĴ": 6427,
      "è´¦": 6428,
      "åľ¨è¿ĻéĩĮ": 6429,
      "Ġhang": 6430,
      "åħ¨çĲĥ": 6431,
      "çĮľ": 6432,
      "Ġshut": 6433,
      "åĬłä¸Ĭ": 6434,
      "åľĨ": 6435,
      "æĿ¥ãģ¦": 6436,
      "Ġsimply": 6437,
      "ä»Ģä¹Īæł·çļĦ": 6438,
      "æĪĳè®°å¾Ĺ": 6439,
      "éªĳ": 6440,
      "éĢĤåĲĪ": 6441,
      "åĽ½æ°ĳ": 6442,
      "ä¸įæĺ¯è¯´": 6443,
      "äººç±»": 6444,
      "ãģĦãģ¾ãģĽãĤĵ": 6445,
      "ç·ıçĲĨ": 6446,
      "é¡ŀ": 6447,
      "åĽŀäºĭ": 6448,
      "é¢ľ": 6449,
      "ãģĬãĤĬãģ¾ãģĻ": 6450,
      "ä¼ļè§īå¾Ĺ": 6451,
      "ouses": 6452,
      "Ġhost": 6453,
      "çľŁæŃ£çļĦ": 6454,
      "æİ¨èįĲ": 6455,
      "åĽłæŃ¤": 6456,
      "Ġpath": 6457,
      "è¯ļ": 6458,
      "ä¸¸": 6459,
      "Ġeasily": 6460,
      "Ġkiss": 6461,
      "èĢģåħ¬": 6462,
      "Ġinteresting": 6463,
      "Ġfal": 6464,
      "äºĭå®ŀ": 6465,
      "Ġpurs": 6466,
      "Ġdirection": 6467,
      "Ġdecided": 6468,
      "ä¹Į": 6469,
      "Ġcondition": 6470,
      "Ġindividual": 6471,
      "å°±ç®Ĺ": 6472,
      "åŃĲãģ©ãĤĤ": 6473,
      "è¯´åĪ°": 6474,
      "Ġchanged": 6475,
      "åłĨ": 6476,
      "çĶľ": 6477,
      "Ġsilent": 6478,
      "Ġhappen": 6479,
      "æ¶Īè´¹": 6480,
      "åĶ¯ä¸Ģ": 6481,
      "ãĤīãģĹãģĦ": 6482,
      "ç¶ļãģĦãģ¦ãģ¯": 6483,
      "å¯¹å¯¹å¯¹å¯¹": 6484,
      "äººéĥ½": 6485,
      "Ġcustom": 6486,
      "ãģķãĤĵãģ¨": 6487,
      "åħ«åįģ": 6488,
      "Ġdeli": 6489,
      "æ¯ķä¸ļ": 6490,
      "æĺ¯è¦ģ": 6491,
      "ãĥ«ãģ®": 6492,
      "åħ±åĲĮ": 6493,
      "éĻĦ": 6494,
      "Ġconcer": 6495,
      "ãĥĪãĥ©": 6496,
      "Ġhill": 6497,
      "çļĦæķħäºĭ": 6498,
      "mn": 6499,
      "äººåķĬ": 6500,
      "ãĥ¤": 6501,
      "éłĳå¼µ": 6502,
      "ãģ¾ãģ£ãģŁ": 6503,
      "ä»Ĭå¾Į": 6504,
      "è·Į": 6505,
      "ä¸Ģå®ļä¼ļ": 6506,
      "æĸĩåŃĹ": 6507,
      "Ġshout": 6508,
      "ç¾Ĭ": 6509,
      "Ġsorry": 6510,
      "We": 6511,
      "Ġgrave": 6512,
      "å°±æĺ¯å°±æĺ¯": 6513,
      "Ġpicture": 6514,
      "å°±å¼Ģå§ĭ": 6515,
      "ãĤĦãģ¯ãĤĬ": 6516,
      "åĵ¥åĵ¥": 6517,
      "ãĥķãĤ©": 6518,
      "å®Ļ": 6519,
      "Ġlim": 6520,
      "éģŃ": 6521,
      "å¹³æĹ¶": 6522,
      "æĹħè¡Į": 6523,
      "ä»į": 6524,
      "ç«ĭãģ¡": 6525,
      "çĿ¡è§ī": 6526,
      "unk": 6527,
      "ãģ«ãģ¨": 6528,
      "é®": 6529,
      "å°±èĥ½": 6530,
      "ãĥ³ãĥģ": 6531,
      "èĥ¸": 6532,
      "éĢĲ": 6533,
      "åĿ¦": 6534,
      "ãģªãĤĵãģ¦": 6535,
      "ç¬¦": 6536,
      "éĸ¢æĿ±": 6537,
      "Ġpassion": 6538,
      "ãĤĤãģ¡": 6539,
      "Ġparts": 6540,
      "Ġcorner": 6541,
      "oom": 6542,
      "Ġlatter": 6543,
      "ãģĤãĤĵ": 6544,
      "Ġfit": 6545,
      "ãģ¨ãģªãĤĭ": 6546,
      "åĸ¶": 6547,
      "ãĤ¹ãĥĨ": 6548,
      "ãģ¾ãģķ": 6549,
      "æĪĳæ²¡æľī": 6550,
      "ãģ¡ãĤĥãĤĵãģ¨": 6551,
      "urope": 6552,
      "éĽ¨ãģĮ": 6553,
      "åıįåºĶ": 6554,
      "Ġunited": 6555,
      "Ġlevel": 6556,
      "æ»ļ": 6557,
      "ä¸°": 6558,
      "ãģĦãģ«": 6559,
      "hered": 6560,
      "ãģ®ãģĭãģª": 6561,
      "Ġdim": 6562,
      "æĺ¯è¯´": 6563,
      "æľīåı¯èĥ½": 6564,
      "ãĥ³ãĤ¸": 6565,
      "Ġbuilding": 6566,
      "æįŁ": 6567,
      "åĵİåĳ¦": 6568,
      "more": 6569,
      "Ġarrived": 6570,
      "Ġstudy": 6571,
      "Ġreach": 6572,
      "æĥ³è¯´": 6573,
      "å½ĵåľ°": 6574,
      "æĥĳ": 6575,
      "æ±¤": 6576,
      "èŃ·": 6577,
      "æłĩåĩĨ": 6578,
      "ç·´": 6579,
      "æĬĬæĪĳ": 6580,
      "è¿ĽæĿ¥": 6581,
      "ãģªãĤĭãģ»ãģ©": 6582,
      "Ġcover": 6583,
      "Ġlanguage": 6584,
      "Ġsav": 6585,
      "Ġaut": 6586,
      "çķªçµĦ": 6587,
      "åĢ¼å¾Ĺ": 6588,
      "å¾Īå¾Ī": 6589,
      "ram": 6590,
      "Ġstuff": 6591,
      "ï¼Ń": 6592,
      "Ġfavor": 6593,
      "Ġconsequ": 6594,
      "è¨¼": 6595,
      "äººåĳ¢": 6596,
      "ology": 6597,
      "Ġparent": 6598,
      "æĹ©ä¸Ĭ": 6599,
      "è°ĥæŁ¥": 6600,
      "åľ§": 6601,
      "Ġpolice": 6602,
      "idered": 6603,
      "Ġvarious": 6604,
      "æŃ³ãģ®": 6605,
      "æĮ¥": 6606,
      "oved": 6607,
      "è¿ĳãģı": 6608,
      "Ġrain": 6609,
      "Ġcovered": 6610,
      "æŃ£å¥½": 6611,
      "æĤī": 6612,
      "bly": 6613,
      "ãģ£ãģıãĤĬ": 6614,
      "ãģĴãģ¦": 6615,
      "ä¾ĭãģĪãģ°": 6616,
      "è·ŁæĪĳä»¬": 6617,
      "æ¯ıä¸Ģä¸ª": 6618,
      "èĦı": 6619,
      "ä»·æł¼": 6620,
      "æ±½": 6621,
      "æĪ¿éĹ´": 6622,
      "æĮ£": 6623,
      "ãģ£ãģ¦ãģ¾ãģĻ": 6624,
      "Ġcivil": 6625,
      "ãģ»ãģĭ": 6626,
      "çļĦå¥½": 6627,
      "ä»¥æĿ¥": 6628,
      "æĤĶ": 6629,
      "otion": 6630,
      "bles": 6631,
      "ours": 6632,
      "ä¸ĢçĤ¹çĤ¹": 6633,
      "formed": 6634,
      "ä»Ĭãģ®": 6635,
      "Ġemp": 6636,
      "æĬ¥éģĵ": 6637,
      "æĪĳè§īå¾Ĺè¿Ļä¸ª": 6638,
      "çĳŀ": 6639,
      "Ġmater": 6640,
      "é²ģ": 6641,
      "æĪĳä»¬åı¯ä»¥": 6642,
      "å¾Īå¿«": 6643,
      "ee": 6644,
      "ç´Ħ": 6645,
      "osop": 6646,
      "Ġsuffic": 6647,
      "å§»": 6648,
      "çĵ¶": 6649,
      "è¾ŀ": 6650,
      "ĠSt": 6651,
      "ãģĨãĤı": 6652,
      "ãģ£ãģ¦ãģĦãģĨãģ®ãģ¯": 6653,
      "å¸«": 6654,
      "ãģĮåħ¥": 6655,
      "å¾®åįļ": 6656,
      "cient": 6657,
      "ãģŁãģ¡ãģ®": 6658,
      "Ġbroke": 6659,
      "Ġdesign": 6660,
      "åºĥãģĮ": 6661,
      "Ġappearance": 6662,
      "Ġmerely": 6663,
      "Ġcontent": 6664,
      "å¸¯": 6665,
      "Ġshot": 6666,
      "å°Ĥ": 6667,
      "åģļä¸Ģä¸ª": 6668,
      "è¨ĢãģĨ": 6669,
      "æģĲæĢĸ": 6670,
      "åįģä¸Ģ": 6671,
      "lace": 6672,
      "Ġsearch": 6673,
      "Ġletters": 6674,
      "Ġterrible": 6675,
      "arily": 6676,
      "å¦Ĥæŀľè¯´": 6677,
      "èº«ä»½": 6678,
      "ergy": 6679,
      "è¯Ŀé¢ĺ": 6680,
      "éĻº": 6681,
      "ĠGod": 6682,
      "å¤§è°·": 6683,
      "ãģķãģĽãģ¦": 6684,
      "è¾ĪåŃĲ": 6685,
      "çĶ»éĿ¢": 6686,
      "ãĤªãĥªãĥ³ãĥĶãĥĥãĤ¯": 6687,
      "éĢļå¸¸": 6688,
      "Ġwonderful": 6689,
      "ãģªãĤĵãģ§ãģĻãģĮ": 6690,
      "itary": 6691,
      "è¡ĮåĬ¨": 6692,
      "bered": 6693,
      "ä»²": 6694,
      "åľ¨ä¸Ģä¸ª": 6695,
      "åĲĦåľ°": 6696,
      "æİīäºĨ": 6697,
      "Ġexpected": 6698,
      "æķ°åŃĹ": 6699,
      "ãĥıãĥı": 6700,
      "ners": 6701,
      "åıįèĢĮ": 6702,
      "face": 6703,
      "åķĨåĵģ": 6704,
      "äººãģ§": 6705,
      "æ¡£": 6706,
      "ãĤ¤ãĥĪ": 6707,
      "ãģĹãģªãģĦ": 6708,
      "åİ³": 6709,
      "èĢĥãģĪãģ¦": 6710,
      "ison": 6711,
      "åĪ¶åº¦": 6712,
      "Ġexpression": 6713,
      "uly": 6714,
      "Ġkilled": 6715,
      "Ġliter": 6716,
      "ishing": 6717,
      "æĺ¯æĪĳä»¬": 6718,
      "Ġninet": 6719,
      "ãģłãģ£ãģ¦": 6720,
      "ç´°": 6721,
      "èĥĮæĻ¯": 6722,
      "ãģłãģĳãģ§": 6723,
      "Ġentirely": 6724,
      "çĭ¬ç«ĭ": 6725,
      "Ġpresident": 6726,
      "ãģĵãģ¨ãĤĤ": 6727,
      "æ¬º": 6728,
      "Ġoccur": 6729,
      "äººãĤĴ": 6730,
      "éĿ¢åīį": 6731,
      "å¤©æ°Ĺ": 6732,
      "ãĢı": 6733,
      "åħ±äº§": 6734,
      "åĲįçļĦ": 6735,
      "Ġdan": 6736,
      "ä¿ĿæĮģ": 6737,
      "Ġestab": 6738,
      "å¤§èĩ£": 6739,
      "Ġwinter": 6740,
      "ãĤ°ãĥ«": 6741,
      "Ġshore": 6742,
      "å¹´ãģ®": 6743,
      "Ġeverybody": 6744,
      "Ġdiscuss": 6745,
      "æ²¡ä»Ģä¹Ī": 6746,
      "Ġfright": 6747,
      "Ġutter": 6748,
      "ium": 6749,
      "å½ĵæĻĤ": 6750,
      "Ġgonna": 6751,
      "Ġallowed": 6752,
      "é®®": 6753,
      "ãģĵãĤĮãģ§": 6754,
      "éļİ": 6755,
      "å¯¼æ¼Ķ": 6756,
      "ãĢİ": 6757,
      "æľµ": 6758,
      "Ġspr": 6759,
      "cho": 6760,
      "ç¾½": 6761,
      "Ġusual": 6762,
      "ä¸Ģæ®µ": 6763,
      "ãĤĴãģĭ": 6764,
      "æºĢ": 6765,
      "ãĥ©ãĤ¹": 6766,
      "Ġconscious": 6767,
      "ising": 6768,
      "æĻĵ": 6769,
      "ä¸Ńå¤®": 6770,
      "ãģ¤ãģĭ": 6771,
      "Ġur": 6772,
      "Ġtouch": 6773,
      "ä½łåĪ«": 6774,
      "Ġprevent": 6775,
      "èĻ«": 6776,
      "Ġaud": 6777,
      "æ²¡æľīä»Ģä¹Ī": 6778,
      "ays": 6779,
      "Ġclosed": 6780,
      "ä¸ĭäºĨ": 6781,
      "Ġlikely": 6782,
      "Ġfinally": 6783,
      "Ġinside": 6784,
      "åĲĥçļĦ": 6785,
      "å²©": 6786,
      "Ġdefe": 6787,
      "Ġbott": 6788,
      "åįģå¹´": 6789,
      "itation": 6790,
      "ãģ§ãģįãģªãģĦ": 6791,
      "é¡¹çĽ®": 6792,
      "ä½ľèĢħ": 6793,
      "Ġmal": 6794,
      "Ġiron": 6795,
      "æħ§": 6796,
      "Ġeast": 6797,
      "Ġsurpris": 6798,
      "ä¸įåı¯èĥ½": 6799,
      "Ġess": 6800,
      "Ġsole": 6801,
      "aining": 6802,
      "ãģ£ãģ¦ãģŁ": 6803,
      "Ġvalue": 6804,
      "æ¬ł": 6805,
      "å¼ĢäºĨ": 6806,
      "ãģ§ãģĻãģĳãģ©": 6807,
      "ä¸¦": 6808,
      "æ¶²": 6809,
      "ç¶Ļ": 6810,
      "Ġbuilt": 6811,
      "éŀĭ": 6812,
      "çĶ±äºİ": 6813,
      "å¹²ä»Ģä¹Ī": 6814,
      "åŃĲéĩĮ": 6815,
      "Ġpaid": 6816,
      "Ġcand": 6817,
      "éķĩ": 6818,
      "col": 6819,
      "éĵ¶è¡Į": 6820,
      "Ġinvest": 6821,
      "ä¾ĿçĦ¶": 6822,
      "èĪŀåı°": 6823,
      "èĥĮåĲİ": 6824,
      "çļĦåħ³ç³»": 6825,
      "Ġexce": 6826,
      "Ġmajor": 6827,
      "rop": 6828,
      "æĢģåº¦": 6829,
      "ãĥĿãĤ¤ãĥ³ãĥĪ": 6830,
      "ify": 6831,
      "ç»ĻäºĨ": 6832,
      "è¯Ńè¨Ģ": 6833,
      "Ġcult": 6834,
      "ç³»åĪĹ": 6835,
      "å¤ĸåĽ½": 6836,
      "è¿¹": 6837,
      "Ġpra": 6838,
      "çĲ´": 6839,
      "ä¸¤å¤©": 6840,
      "ãģ¿ãģ¦": 6841,
      "å°ļ": 6842,
      "ãĤĵãģ§ãģĻãģĳãĤĮãģ©ãĤĤ": 6843,
      "æĭĴ": 6844,
      "Ġtalked": 6845,
      "Ġspread": 6846,
      "reg": 6847,
      "çŃīäºİ": 6848,
      "æīİ": 6849,
      "Ġdestro": 6850,
      "Ġmir": 6851,
      "Ġpersons": 6852,
      "æģĭçĪ±": 6853,
      "è¯´ä¸į": 6854,
      "Ġtone": 6855,
      "house": 6856,
      "Ġhol": 6857,
      "rel": 6858,
      "æµ·å¤ĸ": 6859,
      "Ġourselves": 6860,
      "çĤİ": 6861,
      "å¸ħ": 6862,
      "ï¼¤": 6863,
      "æīįæĺ¯": 6864,
      "ä¸ĬçıŃ": 6865,
      "Ġleaving": 6866,
      "ä¸Ģä¸Ģ": 6867,
      "åĨĻçļĦ": 6868,
      "ãĤĵãģłãĤĪ": 6869,
      "ãģĿãģĨãģł": 6870,
      "Ġtrain": 6871,
      "onel": 6872,
      "æĬĬè¿Ļ": 6873,
      "è¯´è¿ĩ": 6874,
      "æĪĳä»¬ä¹Ł": 6875,
      "Ġfra": 6876,
      "ãģ©ãģ®": 6877,
      "Ġphilosop": 6878,
      "æĬĬä½ł": 6879,
      "éķ¿çļĦ": 6880,
      "ãģĳãĤĮãģ°": 6881,
      "ãģĭãģªãģĭ": 6882,
      "å¾Īå¤§çļĦ": 6883,
      "ãĤħ": 6884,
      "å¥³åŃĲ": 6885,
      "è¿Ļä»¶äºĭ": 6886,
      "æ®Ĭ": 6887,
      "ibility": 6888,
      "uous": 6889,
      "cher": 6890,
      "æľºåĻ¨": 6891,
      "Ġsam": 6892,
      "tended": 6893,
      "æĺ¯åķĬ": 6894,
      "æıĴ": 6895,
      "èħ°": 6896,
      "Ġbaby": 6897,
      "å°¸": 6898,
      "æĪĳåı¯ä»¥": 6899,
      "Ġange": 6900,
      "ä¸Ģãģ¤": 6901,
      "ãĥĨãĥ¬": 6902,
      "aff": 6903,
      "ãģªãĤĵãģ§ãģĻãģŃ": 6904,
      "é¸Ł": 6905,
      "çľĭçļĦ": 6906,
      "Ġseventy": 6907,
      "çļĦä¸»": 6908,
      "verse": 6909,
      "Ġclean": 6910,
      "gram": 6911,
      "æ³¨çĽ®": 6912,
      "å°ıå¿ĥ": 6913,
      "åĭķãģį": 6914,
      "çĭ¼": 6915,
      "Ġturning": 6916,
      "ãĤĪãĤįãģĹãģıãģĬé¡ĺãģĦãģĹãģ¾ãģĻ": 6917,
      "Ġwel": 6918,
      "ä»¥å¤ĸ": 6919,
      "ãģıãģªãĤĭ": 6920,
      "èĢģå©Ĩ": 6921,
      "ä½ľçĶ¨": 6922,
      "Ġeager": 6923,
      "Ġgroup": 6924,
      "Ġmach": 6925,
      "èįĴ": 6926,
      "é¥®": 6927,
      "Ġwise": 6928,
      "èĩ³äºİ": 6929,
      "oted": 6930,
      "çļĦä¸Ģç§į": 6931,
      "æĸ°åŀĭ": 6932,
      "å®ĩå®Ļ": 6933,
      "ãģ£ãģ¦ãģįãģŁ": 6934,
      "Ġrapid": 6935,
      "åĬĽãĤĴ": 6936,
      "eral": 6937,
      "Ġweeks": 6938,
      "å¥¶å¥¶": 6939,
      "Ġtur": 6940,
      "éĺª": 6941,
      "è»½": 6942,
      "èĩªèº«": 6943,
      "Ġlower": 6944,
      "éº»çĥ¦": 6945,
      "ãģĽãģŁ": 6946,
      "Ġapart": 6947,
      "Ġvillage": 6948,
      "ãģ£ãģį": 6949,
      "çĹĽèĭ¦": 6950,
      "æĺ¯æĢİä¹Ī": 6951,
      "ç¨¿": 6952,
      "æĭľçĻ»": 6953,
      "æ´Ľ": 6954,
      "åĵģçīĮ": 6955,
      "åĨĻçľŁ": 6956,
      "Ġafterwards": 6957,
      "ä¸ĵéĹ¨": 6958,
      "ĠMr": 6959,
      "æĺ¯çļĦ": 6960,
      "æĶ¯æı´": 6961,
      "åı«ä»Ģä¹Ī": 6962,
      "èļ": 6963,
      "ãĤĪãģĭãģ£ãģŁ": 6964,
      "Ġsuc": 6965,
      "book": 6966,
      "å¾©": 6967,
      "Ġprivate": 6968,
      "Ġmountain": 6969,
      "Ġsteps": 6970,
      "Ġreve": 6971,
      "ãĤĬãģĮ": 6972,
      "ä¸Ģåº¦": 6973,
      "èĭĹ": 6974,
      "ites": 6975,
      "çĶŁçļĦ": 6976,
      "Ġbow": 6977,
      "ä¸ĬæĿ¥": 6978,
      "ä»Ķ": 6979,
      "è®¢": 6980,
      "ãģĿãģ®å¾Į": 6981,
      "æĺ¯åĲĹ": 6982,
      "éĻ¸": 6983,
      "Ġsan": 6984,
      "ä¸Ģä¼ļåĦ¿": 6985,
      "Ġbread": 6986,
      "ãĤıãģĭ": 6987,
      "ãĥķãĤ£": 6988,
      "å¥½åķĬ": 6989,
      "Ġneck": 6990,
      "Ġmode": 6991,
      "ä»ĸè¦ģ": 6992,
      "Ġterms": 6993,
      "Ġbrain": 6994,
      "é¦¬": 6995,
      "Ġdarkness": 6996,
      "Ġet": 6997,
      "Ġsett": 6998,
      "ä»ĸèĩªå·±": 6999,
      "è¿Ļä¸ªäºĭæĥħ": 7000,
      "uded": 7001,
      "Ġexpress": 7002,
      "åıĤä¸İ": 7003,
      "åĬłåħ¥": 7004,
      "ulation": 7005,
      "æ¬§æ´²": 7006,
      "ãĥ³ãĥĹ": 7007,
      "æ±Ĺ": 7008,
      "çļĦçĶŁæ´»": 7009,
      "Ġcook": 7010,
      "Ġpick": 7011,
      "oses": 7012,
      "è¿ĺèĥ½": 7013,
      "äººåľ¨": 7014,
      "éļıçĿĢ": 7015,
      "Ġcolle": 7016,
      "Ġbeha": 7017,
      "Ġtrem": 7018,
      "ç»©": 7019,
      "æĴŀ": 7020,
      "ä½Ĩæĺ¯ä½ł": 7021,
      "ãĤĵãģ®": 7022,
      "por": 7023,
      "Ġagre": 7024,
      "èģŀãģĦãģ¦": 7025,
      "Ġsucceed": 7026,
      "Ġunless": 7027,
      "Ġamount": 7028,
      "zen": 7029,
      "æĻ¨": 7030,
      "Ġfol": 7031,
      "å¹¼": 7032,
      "èĭ±æĸĩ": 7033,
      "ãģĦãĤįãĤĵãģª": 7034,
      "çļĦåĳĥ": 7035,
      "ãģĹãĤĪãģĨ": 7036,
      "Ġfirm": 7037,
      "å¤ªå¤ļ": 7038,
      "action": 7039,
      "ãĤĦãĤĭ": 7040,
      "é¢Ĺ": 7041,
      "æĳĺ": 7042,
      "èĩªæĪĳ": 7043,
      "Ġdiscovered": 7044,
      "Rec": 7045,
      "cle": 7046,
      "ä¹Ŀåįģ": 7047,
      "ç©·": 7048,
      "èĸĦ": 7049,
      "ãĥĹãĥ¬": 7050,
      "æĶ¾å¿ĥ": 7051,
      "å©ļå§»": 7052,
      "Ġtender": 7053,
      "Ġpure": 7054,
      "é¼»": 7055,
      "Ġrelie": 7056,
      "ãģĿãģĵãģ§": 7057,
      "æ¼Ķåĳĺ": 7058,
      "even": 7059,
      "å¾Ģå¾Ģ": 7060,
      "Ġpit": 7061,
      "åĩ¶": 7062,
      "Ġmut": 7063,
      "yeah": 7064,
      "Ġallow": 7065,
      "apt": 7066,
      "Ġpoet": 7067,
      "ãģ¦ãĤĭ": 7068,
      "ç¼ĵ": 7069,
      "Ġfurn": 7070,
      "Ġconfess": 7071,
      "acc": 7072,
      "èµ·äºĨ": 7073,
      "æĺŁæľŁ": 7074,
      "ä¸įæĩĤ": 7075,
      "çĪ¹": 7076,
      "ç¡®å®ļ": 7077,
      "clock": 7078,
      "è¾Ĩ": 7079,
      "ãģĵãģ®ãģĤãģ¨": 7080,
      "Ġfrequ": 7081,
      "Ġwriting": 7082,
      "Ġrad": 7083,
      "Ġdav": 7084,
      "ãģĭãģªãĤĬ": 7085,
      "Ġpersonal": 7086,
      "Ġhero": 7087,
      "ãģĮè¡Į": 7088,
      "Ġmemory": 7089,
      "eath": 7090,
      "Ġjob": 7091,
      "Ġmeeting": 7092,
      "icate": 7093,
      "ãģªãĤĵãģ§ãģĻãģĳãģ©": 7094,
      "Ġrace": 7095,
      "ãģ®ä¸Ńãģ§": 7096,
      "Ġopportunity": 7097,
      "gged": 7098,
      "èĢĲ": 7099,
      "Ġimpro": 7100,
      "nown": 7101,
      "æľĪä»½": 7102,
      "ãĤ¯ãĥª": 7103,
      "ä¸įä½ı": 7104,
      "ä¸įåľ¨": 7105,
      "Ġsword": 7106,
      "æĤŁ": 7107,
      "iny": 7108,
      "Ġjesus": 7109,
      "ses": 7110,
      "Ġcomb": 7111,
      "Ġescape": 7112,
      "è¨ĺéĮ²": 7113,
      "è¨Ģèĳī": 7114,
      "è¯ģæĺİ": 7115,
      "åķ¡": 7116,
      "åıĸæĿĲ": 7117,
      "åĪĩãĤĬ": 7118,
      "æ¹¿": 7119,
      "å®īæİĴ": 7120,
      "åıĹåĪ°": 7121,
      "è²»": 7122,
      "å»ºç«ĭ": 7123,
      "æļ®": 7124,
      "åħ¨çĦ¶": 7125,
      "Ġspent": 7126,
      "Ġchristian": 7127,
      "Ġappre": 7128,
      "è§Ĥå¯Ł": 7129,
      "éģº": 7130,
      "Ġjustice": 7131,
      "æ¶ī": 7132,
      "Ġearn": 7133,
      "æĪĳå½ĵæĹ¶": 7134,
      "ãģ®ãĤĴ": 7135,
      "Ġsilver": 7136,
      "Ġrid": 7137,
      "Ġgerman": 7138,
      "æľĢå¥½çļĦ": 7139,
      "èµ¢": 7140,
      "åĬĽçļĦ": 7141,
      "æĪĳå°±è§īå¾Ĺ": 7142,
      "Ġcircumstances": 7143,
      "çĦ¶åĲİä½ł": 7144,
      "ãĥ¼ãĥĬ": 7145,
      "çĦ¶åĲİè¿Ļä¸ª": 7146,
      "å¤ļæķ°": 7147,
      "æ¯«": 7148,
      "ãģĶãĤį": 7149,
      "Ġfail": 7150,
      "alley": 7151,
      "æ³°": 7152,
      "æ³ī": 7153,
      "éĶģ": 7154,
      "Ġnotice": 7155,
      "æķĹ": 7156,
      "ãĥ¼ãĥĸ": 7157,
      "Ġmarriage": 7158,
      "çħ§é¡¾": 7159,
      "é«ĺçļĦ": 7160,
      "æĺİæĹ¥": 7161,
      "ãģĻãģİ": 7162,
      "æĦıå¤ĸ": 7163,
      "Ġwalls": 7164,
      "Ġyork": 7165,
      "è§ģè¿ĩ": 7166,
      "ades": 7167,
      "Ġshare": 7168,
      "çµĦãģ¿": 7169,
      "Ġoffer": 7170,
      "å°ıå§Ĳ": 7171,
      "Ġadvant": 7172,
      "åħ¬ä¼Ĺåı·": 7173,
      "ä»ĸåı¯èĥ½": 7174,
      "éĸĵãģ«": 7175,
      "ãĥķãĤ§": 7176,
      "å¯¹ä¸įèµ·": 7177,
      "ization": 7178,
      "net": 7179,
      "å¯º": 7180,
      "oon": 7181,
      "Ġaunt": 7182,
      "ãĤĴãģĻãĤĭ": 7183,
      "Ġpack": 7184,
      "Ġjudge": 7185,
      "ãģ¦ãĤĤ": 7186,
      "ãģĮãģªãģĦ": 7187,
      "è¿ĻäºĽä¸ľè¥¿": 7188,
      "Ġgrass": 7189,
      "å¸¦æĿ¥": 7190,
      "ç³Ĭ": 7191,
      "ä¼ĳæģ¯": 7192,
      "åĬ¨ä½ľ": 7193,
      "è¯ĳ": 7194,
      "ãĤĵãģ¨": 7195,
      "ç¡Ģ": 7196,
      "Ġgreatest": 7197,
      "Ġreading": 7198,
      "ãģĿãĤĮãģ§": 7199,
      "Ġproblem": 7200,
      "Ġhonest": 7201,
      "Ġconsidered": 7202,
      "åĳĹ": 7203,
      "ky": 7204,
      "Ġsituation": 7205,
      "Ġdry": 7206,
      "ãģĦãĤĪ": 7207,
      "æīįä¼ļ": 7208,
      "ãĤģãģ¡ãĤĥ": 7209,
      "Ġhaven": 7210,
      "äººæ°Ĺ": 7211,
      "Ġgenerally": 7212,
      "ä½ĵéªĮ": 7213,
      "èĤĮ": 7214,
      "Ġscene": 7215,
      "Ġextreme": 7216,
      "å®¶éķ¿": 7217,
      "erve": 7218,
      "è¿ĺæĮº": 7219,
      "icated": 7220,
      "åħ«å¹´": 7221,
      "éĤª": 7222,
      "ãĥ¡ãĥĢ": 7223,
      "lend": 7224,
      "ãģĵãĤĮãģĭãĤī": 7225,
      "ä¸Ģåı¥": 7226,
      "æ¯Ķæĸ¹": 7227,
      "æ²¿": 7228,
      "Ġcla": 7229,
      "Ġscience": 7230,
      "lies": 7231,
      "åª³": 7232,
      "Ġspeech": 7233,
      "åįĺ": 7234,
      "è¶ħè¿ĩ": 7235,
      "Ġcases": 7236,
      "ãģªãģľ": 7237,
      "vation": 7238,
      "æĿ¥ãģŁ": 7239,
      "ãģ§ãģĤãĤĭ": 7240,
      "å¸¸å¸¸": 7241,
      "ilar": 7242,
      "å¥³çļĦ": 7243,
      "æ¨¡å¼ı": 7244,
      "Ġgro": 7245,
      "Ġamaz": 7246,
      "Ġinfluence": 7247,
      "æ²¡æĥ³åĪ°": 7248,
      "Ġintrodu": 7249,
      "åģļåĪ°": 7250,
      "å¥Ķ": 7251,
      "è¾¾åĪ°": 7252,
      "çĽ£": 7253,
      "Ġhunt": 7254,
      "gu": 7255,
      "åľ°çĲĥ": 7256,
      "Ġsupposed": 7257,
      "Ġintellig": 7258,
      "ãģ¬": 7259,
      "Ġworse": 7260,
      "çīĩåŃĲ": 7261,
      "é¼ł": 7262,
      "åĨħå¿ĥ": 7263,
      "Ġbrit": 7264,
      "äºĨåĺĽ": 7265,
      "Ġcharge": 7266,
      "éł¼": 7267,
      "Ġclothes": 7268,
      "éĿŀå¸¸éĿŀå¸¸": 7269,
      "ãģªãģĭãģªãģĭ": 7270,
      "ãĤĤãģ£ãģ¨": 7271,
      "æľīåħ³": 7272,
      "æĭĸ": 7273,
      "éĩĮå¤´": 7274,
      "ãģ«ãģªãĤĬ": 7275,
      "åŃķ": 7276,
      "Ġtall": 7277,
      "èĢħãģĮ": 7278,
      "éĩĳèŀį": 7279,
      "Ġsurprise": 7280,
      "è¿ĻæĹ¶åĢĻ": 7281,
      "ãģ«éĸ¢": 7282,
      "è¯´æĺİ": 7283,
      "åĴĸåķ¡": 7284,
      "èºº": 7285,
      "ãĤĵãģ§ãģĹãģŁ": 7286,
      "cise": 7287,
      "Ġmort": 7288,
      "Ġnoble": 7289,
      "ä¼°è®¡": 7290,
      "Ġevidence": 7291,
      "ãģ²ãģ¨": 7292,
      "ially": 7293,
      "Ġassist": 7294,
      "Ġmotion": 7295,
      "ä»ĬåĽŀãģ®": 7296,
      "Ġhigher": 7297,
      "Ġwatched": 7298,
      "åŁºç¡Ģ": 7299,
      "ç½ĳåıĭ": 7300,
      "æĢĿæĥ³": 7301,
      "çĤĴ": 7302,
      "Ġadmir": 7303,
      "å®ŀè¯Ŀ": 7304,
      "Ġrul": 7305,
      "ãģ¾ãģ£ãģ¦": 7306,
      "eness": 7307,
      "ä¸ĢæĹ¦": 7308,
      "Ġfrank": 7309,
      "Ġleaves": 7310,
      "Ġpleasant": 7311,
      "ä¸Ģå®¶": 7312,
      "åºĵ": 7313,
      "åľ¨æĪĳä»¬": 7314,
      "Ġapparent": 7315,
      "Ġbeneath": 7316,
      "çĬ¯ç½ª": 7317,
      "æ·»": 7318,
      "will": 7319,
      "itive": 7320,
      "çĨŁæĤī": 7321,
      "ç¢ºãģĭãģ«": 7322,
      "ä¸¹": 7323,
      "Ġsomewhat": 7324,
      "Ġmarry": 7325,
      "åĩŃ": 7326,
      "hion": 7327,
      "sec": 7328,
      "eds": 7329,
      "Ġrecordings": 7330,
      "Ġves": 7331,
      "æĪĳä»¬éĥ½": 7332,
      "è¯´ä»Ģä¹Ī": 7333,
      "Ġring": 7334,
      "Recording": 7335,
      "èı²": 7336,
      "Ġcouple": 7337,
      "å¥³æľĭåıĭ": 7338,
      "çıł": 7339,
      "åħ¥ãĤĮ": 7340,
      "ä½łèĥ½": 7341,
      "any": 7342,
      "ãģĶãģĸãģĦãģ¾ãģĹãģŁ": 7343,
      "Ġdata": 7344,
      "åºĦ": 7345,
      "ãģĪãģ¾ãģĻ": 7346,
      "ãģĵãĤĮãĤĴ": 7347,
      "çľĭæĿ¥": 7348,
      "åĶī": 7349,
      "çŃĭ": 7350,
      "het": 7351,
      "èĢĮå·²": 7352,
      "ãģ«ãģĭãģĳãģ¦": 7353,
      "Ġinstant": 7354,
      "èĬ¸": 7355,
      "Ġbal": 7356,
      "åį³ä½¿": 7357,
      "Ġblind": 7358,
      "å¥¹çļĦ": 7359,
      "Ġobserved": 7360,
      "itable": 7361,
      "pered": 7362,
      "Ġpeter": 7363,
      "ä¸Ģä¸ªæĺ¯": 7364,
      "æĪĳè¿Ļä¸ª": 7365,
      "Ġtemper": 7366,
      "Ġmaterial": 7367,
      "è¡Ľ": 7368,
      "å®ŀçİ°": 7369,
      "èĤ©": 7370,
      "Ġstore": 7371,
      "é¤¨": 7372,
      "Ġpale": 7373,
      "æ±ºåĭĿ": 7374,
      "ï¼¨": 7375,
      "æĶ¾å¼ĥ": 7376,
      "åĸĤ": 7377,
      "Ġsorrow": 7378,
      "Ġdifference": 7379,
      "Ġwished": 7380,
      "æ´»åĭķ": 7381,
      "pro": 7382,
      "ç¢İ": 7383,
      "èµı": 7384,
      "Ġice": 7385,
      "å¥ĭ": 7386,
      "åľ°ä¸Ĭ": 7387,
      "ä¹Łè¦ģ": 7388,
      "ãĥ¨": 7389,
      "Ġworked": 7390,
      "æ¢ģ": 7391,
      "çĸ²": 7392,
      "ration": 7393,
      "çħ®": 7394,
      "ãģıãĤīãģĦ": 7395,
      "Ġreply": 7396,
      "åľ¨è¿ĻåĦ¿": 7397,
      "èĤ¥": 7398,
      "Ġbelieved": 7399,
      "æ¡¥": 7400,
      "Ġhonor": 7401,
      "Ġlines": 7402,
      "è´Łè´£": 7403,
      "åİ¿": 7404,
      "Ġthor": 7405,
      "åĽ¢éĺŁ": 7406,
      "fast": 7407,
      "æľīè¿Ļä¸ª": 7408,
      "åľ¨åľ¨": 7409,
      "ãĥ³ãĤĴ": 7410,
      "éĬĢ": 7411,
      "äººãģ«": 7412,
      "æīĢä»¥æĪĳè§īå¾Ĺ": 7413,
      "åħ¶å®ŀå°±æĺ¯": 7414,
      "Ġlou": 7415,
      "æĪĳçľŁçļĦ": 7416,
      "Ġknight": 7417,
      "ises": 7418,
      "çĶŁãģ¾": 7419,
      "çī¹ãģ«": 7420,
      "å¢ŀåĬł": 7421,
      "Ġgrant": 7422,
      "Ġperfectly": 7423,
      "ãĤĤãģ®ãĤĴ": 7424,
      "ç¹ģ": 7425,
      "è¿ĺä¼ļ": 7426,
      "æ»´": 7427,
      "ä¼¼ä¹İ": 7428,
      "è®²åĪ°": 7429,
      "Ġsomeone": 7430,
      "è§ĤçĤ¹": 7431,
      "Ġven": 7432,
      "ä¸ºä»Ģä¹Īè¦ģ": 7433,
      "è¿Ļå°±": 7434,
      "Ġeurope": 7435,
      "æľ±": 7436,
      "Ġflowers": 7437,
      "æıĲåĩº": 7438,
      "æĢ¨": 7439,
      "ï¼§": 7440,
      "Ġment": 7441,
      "æľīå¤ļ": 7442,
      "å®ŁéļĽ": 7443,
      "Ġhappiness": 7444,
      "gment": 7445,
      "èĸ¬": 7446,
      "ä¸įå¯¹": 7447,
      "char": 7448,
      "è©±ãĤĴ": 7449,
      "çĥĤ": 7450,
      "åįĶ": 7451,
      "Ġsusp": 7452,
      "asp": 7453,
      "æīĢä»¥è¿Ļä¸ª": 7454,
      "ãģ¨ãģĦãģĨãģĭ": 7455,
      "Ġtech": 7456,
      "åķĨä¸ļ": 7457,
      "Ġbell": 7458,
      "åĪ©çĽĬ": 7459,
      "çĪ¬": 7460,
      "every": 7461,
      "æŀļ": 7462,
      "è¯Ħè®º": 7463,
      "Ġreceive": 7464,
      "èµ·ãģĵ": 7465,
      "çľĭèµ·æĿ¥": 7466,
      "ãģ¡ãģ¯": 7467,
      "æī°": 7468,
      "Ġrelations": 7469,
      "åŃĶ": 7470,
      "thern": 7471,
      "Ġproud": 7472,
      "ãģĵãģ¨ãģ«": 7473,
      "don": 7474,
      "æķĪæŀľ": 7475,
      "ä»ĸå¦Ī": 7476,
      "rem": 7477,
      "éĶħ": 7478,
      "æļĤ": 7479,
      "æ®¿": 7480,
      "Ġpromise": 7481,
      "can": 7482,
      "Ġbitter": 7483,
      "æ²ŁéĢļ": 7484,
      "mr": 7485,
      "ä¸įå®ī": 7486,
      "èĥĨ": 7487,
      "Ġexec": 7488,
      "æĮģç»Ń": 7489,
      "Ġartic": 7490,
      "unch": 7491,
      "æīĵçĶµè¯Ŀ": 7492,
      "ç©į": 7493,
      "Ġinno": 7494,
      "Ġrise": 7495,
      "ãģłãĤĪ": 7496,
      "Ġears": 7497,
      "ãģ¨ãģĦãģĨãģ®ãģĮ": 7498,
      "è«ĸ": 7499,
      "çĩĥ": 7500,
      "åĽłä¸ºè¿Ļä¸ª": 7501,
      "Ġlean": 7502,
      "ä»İå°ı": 7503,
      "Ġcatch": 7504,
      "umed": 7505,
      "åį·": 7506,
      "retched": 7507,
      "Ġpan": 7508,
      "æ¯ĶèµĽ": 7509,
      "æīĵãģ¡": 7510,
      "Ġbull": 7511,
      "çĪ½": 7512,
      "ãĥĸãĥ«": 7513,
      "ails": 7514,
      "ford": 7515,
      "åį±éĻ©": 7516,
      "Ġrepeated": 7517,
      "Ġunderstood": 7518,
      "Ġcalm": 7519,
      "Ġhabit": 7520,
      "cer": 7521,
      "ä¸ŃåĽ½äºº": 7522,
      "ãģ¾ãģĽãĤĵãģ§ãģĹãģŁ": 7523,
      "è¿Ļä¹Łæĺ¯": 7524,
      "ãģ«å¯¾ãģĹãģ¦": 7525,
      "Ġstation": 7526,
      "å«ģ": 7527,
      "ãĤ«ãĥ¼": 7528,
      "ãģĪãģªãģĦ": 7529,
      "ä¸įæķ¢": 7530,
      "gen": 7531,
      "éĥ½èĥ½": 7532,
      "æĪĳæ²¡": 7533,
      "ãģıãĤĮãģŁ": 7534,
      "ãģ©ãĤĵãģ©ãĤĵ": 7535,
      "Ġdetermined": 7536,
      "oll": 7537,
      "Ġcool": 7538,
      "é£ŀæľº": 7539,
      "å¯Ŀ": 7540,
      "åĩī": 7541,
      "ä¸įå¤Ł": 7542,
      "bes": 7543,
      "Ġhouses": 7544,
      "ãģĦãģ®": 7545,
      "Ġwand": 7546,
      "Ġpros": 7547,
      "ä¸įèµ·": 7548,
      "ables": 7549,
      "ãģĬåīį": 7550,
      "ä¸ĭä¸Ģ": 7551,
      "Ġlaws": 7552,
      "bar": 7553,
      "åºŁ": 7554,
      "æĥħæĦŁ": 7555,
      "Ġsharp": 7556,
      "å±ģ": 7557,
      "Ġspeed": 7558,
      "Ġmeaning": 7559,
      "ruction": 7560,
      "Ġloss": 7561,
      "å½ĵåĪĿ": 7562,
      "è¤": 7563,
      "åĲĮæł·": 7564,
      "Ġserious": 7565,
      "Ġbran": 7566,
      "Ġtakes": 7567,
      "ä¸»æĴŃ": 7568,
      "ä¸Ńãģ®": 7569,
      "éļıä¾¿": 7570,
      "Ġvalley": 7571,
      "Ġpounds": 7572,
      "éĻ·": 7573,
      "æĬ¥åĳĬ": 7574,
      "Ġsail": 7575,
      "ä¿Ĺ": 7576,
      "æĪĳä»¬æĺ¯": 7577,
      "ãĤĮãģ¦ãģĦãĤĭ": 7578,
      "åĿ¡": 7579,
      "èī¾": 7580,
      "æĬµ": 7581,
      "Ġgrad": 7582,
      "ãģĭãģĭ": 7583,
      "Ġwatching": 7584,
      "Ġham": 7585,
      "ç«Ļåľ¨": 7586,
      "Ġmaid": 7587,
      "Ġeighty": 7588,
      "çį": 7589,
      "éļ¾éģĵ": 7590,
      "éĿ¢çļĦ": 7591,
      "Ġlabor": 7592,
      "ãģĮãģĤãĤĬãģ¾ãģĹãģŁ": 7593,
      "Ġdesert": 7594,
      "åĴĭ": 7595,
      "åĪĨãģĭãĤī": 7596,
      "æĹ¥ãģ«": 7597,
      "çľĭåĪ°äºĨ": 7598,
      "å°İ": 7599,
      "Ġladies": 7600,
      "åĲĮäºĭ": 7601,
      "æĶ¶åħ¥": 7602,
      "ä»ĬæľĪ": 7603,
      "Ġsubst": 7604,
      "çĻºçĶŁ": 7605,
      "Ġgives": 7606,
      "æĸ¹çļĦ": 7607,
      "Ġpi": 7608,
      "çµ¦": 7609,
      "Ġgate": 7610,
      "ãģĹãģ®": 7611,
      "Ġsurr": 7612,
      "ãģķãĤĵãĤĤ": 7613,
      "æľĢå¥½": 7614,
      "è£ľ": 7615,
      "Ġsmiled": 7616,
      "åİ»æī¾": 7617,
      "erable": 7618,
      "è¿½æ±Ĥ": 7619,
      "Ġjer": 7620,
      "æİª": 7621,
      "Ġobli": 7622,
      "Ġfixed": 7623,
      "æ¥µ": 7624,
      "åŁĭ": 7625,
      "é©¾": 7626,
      "åıĹãģĳ": 7627,
      "ãģĵãģ¡ãĤīãģ¯": 7628,
      "æ²ĸ": 7629,
      "çĻ¾å§ĵ": 7630,
      "æ°ĳæĹı": 7631,
      "Ġyellow": 7632,
      "çģ°": 7633,
      "æ³½": 7634,
      "Ġmetho": 7635,
      "Ġbenef": 7636,
      "Ġaust": 7637,
      "Ġthrew": 7638,
      "Ġlying": 7639,
      "çī¹æ®Ĭ": 7640,
      "Ġempt": 7641,
      "å¤įæĿĤ": 7642,
      "éģĵè·¯": 7643,
      "ashed": 7644,
      "Ġmic": 7645,
      "Ġpleased": 7646,
      "å½ĵä½ł": 7647,
      "åĬŁèĥ½": 7648,
      "çµ¶å¯¾": 7649,
      "ãģĵãģ£ãģ¡": 7650,
      "Ġdue": 7651,
      "Ġloud": 7652,
      "è°ĭ": 7653,
      "åĽĽå¹´": 7654,
      "Ġshook": 7655,
      "è¯´è¿Ļ": 7656,
      "Ġclaim": 7657,
      "äºĨä¸ª": 7658,
      "Ġdivine": 7659,
      "Ġthreat": 7660,
      "ä¹ĭç±»çļĦ": 7661,
      "çľĭè¿ĩ": 7662,
      "åŀĭçļĦ": 7663,
      "çłĤ": 7664,
      "aped": 7665,
      "æ²Ī": 7666,
      "Ġseat": 7667,
      "Ġancient": 7668,
      "ãĥĨãĥ¬ãĥĵ": 7669,
      "Ġscarcely": 7670,
      "æĴ¤": 7671,
      "ãĤ¦ãĥĪ": 7672,
      "è³ŀ": 7673,
      "å¤§å¤ī": 7674,
      "Ġagree": 7675,
      "éĢ£ç¶ļ": 7676,
      "ãģªãģıãģª": 7677,
      "ä¸įçŁ¥": 7678,
      "Ġconn": 7679,
      "æĪĳè·Łä½łè¯´": 7680,
      "ãģĵãĤĵãģ«": 7681,
      "Ġnarrow": 7682,
      "äº¤éĢļ": 7683,
      "Ġreligion": 7684,
      "é¢ĨåŁŁ": 7685,
      "oura": 7686,
      "Ġband": 7687,
      "Ġbesides": 7688,
      "æĦıçļĦ": 7689,
      "chan": 7690,
      "éĵ¾": 7691,
      "ä¹³": 7692,
      "Ġwine": 7693,
      "Ġoffered": 7694,
      "ãģĵãģĿ": 7695,
      "Ġsoldiers": 7696,
      "åħ±äº§åħļ": 7697,
      "Ġbod": 7698,
      "å¾¡": 7699,
      "å±ı": 7700,
      "ishment": 7701,
      "said": 7702,
      "éĩįçĤ¹": 7703,
      "åĽ°éļ¾": 7704,
      "Ġluck": 7705,
      "å½¢å¼ı": 7706,
      "çĶŁäº§": 7707,
      "Ġengine": 7708,
      "åİĮ": 7709,
      "ä¸Ģæĸ¹éĿ¢": 7710,
      "att": 7711,
      "æĶ»æĴĥ": 7712,
      "çµĮæ¸Ī": 7713,
      "ãģ§ãģĬ": 7714,
      "æĺ¯æ²¡æľī": 7715,
      "ä¸Ģä½ĵ": 7716,
      "wood": 7717,
      "éĽ£ãģĹãģĦ": 7718,
      "When": 7719,
      "éľĢæ±Ĥ": 7720,
      "Ġsake": 7721,
      "Ġcrit": 7722,
      "ä»Ĭå¤ľ": 7723,
      "Ġdropped": 7724,
      "è®°èĢħ": 7725,
      "ç·Ĭ": 7726,
      "Ġprepared": 7727,
      "ãĤĦãģĻãģĦ": 7728,
      "Ġproject": 7729,
      "Ġmult": 7730,
      "ãĤ«ãĥ¡": 7731,
      "Ġnineteen": 7732,
      "Ġroyal": 7733,
      "ãģ¨ãģĹãģ¦ãģ¯": 7734,
      "æĥ¨": 7735,
      "Ġpercent": 7736,
      "Ġstick": 7737,
      "off": 7738,
      "ç½ĳä¸Ĭ": 7739,
      "è¿Ļä¹Īè¯´": 7740,
      "ä»»åĬ¡": 7741,
      "åĭ¤": 7742,
      "çĶŁæ°Ķ": 7743,
      "æŃ£å¼ı": 7744,
      "Ġmart": 7745,
      "Ġvain": 7746,
      "Ġproperty": 7747,
      "ãĤĤãģ¡ãĤį": 7748,
      "å¿§": 7749,
      "éĹ²": 7750,
      "Ġmel": 7751,
      "æĭ¿çĿĢ": 7752,
      "åª³å¦ĩ": 7753,
      "ãĥ¼ãĥĳ": 7754,
      "å°±æ²¡": 7755,
      "If": 7756,
      "åĦªåĭĿ": 7757,
      "çĶ¨æĪ·": 7758,
      "ãĥ¥ãĥ¼": 7759,
      "Ġvessel": 7760,
      "Then": 7761,
      "åį°åº¦": 7762,
      "åŃĲä¾Ľ": 7763,
      "åĲĪãĤıãģĽãģ¦": 7764,
      "Ġhuge": 7765,
      "åĢº": 7766,
      "Ġpolitical": 7767,
      "éĴ¢": 7768,
      "é£İéĻ©": 7769,
      "ç¾©": 7770,
      "Ġbottom": 7771,
      "Ġenv": 7772,
      "å°±å·²ç»ı": 7773,
      "Ġgeorge": 7774,
      "çĸ¾": 7775,
      "ä¼¤å®³": 7776,
      "mpat": 7777,
      "Ġbird": 7778,
      "Ġbirds": 7779,
      "ãģĭãĤĤãģĹãĤĮãģªãģĦ": 7780,
      "å½»": 7781,
      "èµĸ": 7782,
      "å±ħçĦ¶": 7783,
      "Ġmovement": 7784,
      "Ġsimilar": 7785,
      "å°ıè¯´": 7786,
      "è¨Ģãģ£ãģ¦": 7787,
      "Ġhit": 7788,
      "å¹´é¾Ħ": 7789,
      "å°±æĺ¯è¦ģ": 7790,
      "çĪ·çĪ·": 7791,
      "æĪĳå¾Ī": 7792,
      "æĪĳå¦Ī": 7793,
      "Ġdeclared": 7794,
      "çĶ·æľĭåıĭ": 7795,
      "èľľ": 7796,
      "èª¿æŁ»": 7797,
      "Ġstock": 7798,
      "ãģŁãģ¡ãģ¯": 7799,
      "ä¸Ģäºº": 7800,
      "æģ°": 7801,
      "æĪĳæĿ¥": 7802,
      "pet": 7803,
      "ãĤ¹ãĥĿ": 7804,
      "è¿Ļä¸Ģæ¬¡": 7805,
      "Ġneare": 7806,
      "Ġtrave": 7807,
      "cts": 7808,
      "Ġpocket": 7809,
      "åĽ½ãģ®": 7810,
      "è£½": 7811,
      "Ġfrance": 7812,
      "ãĤ¹ãĤ¿ãĥ¼ãĥĪ": 7813,
      "Ġbuy": 7814,
      "Ġstro": 7815,
      "ãģ¨ãģĹãģŁ": 7816,
      "uses": 7817,
      "è¡¡": 7818,
      "çĦ¶åĲİéĤ£ä¸ª": 7819,
      "æĸ°åŀĭãĤ³ãĥŃãĥĬ": 7820,
      "Ġsen": 7821,
      "ãģĭæľĪ": 7822,
      "Ġdisappe": 7823,
      "çĽ®æĮĩ": 7824,
      "ãĤĬãĤĴ": 7825,
      "åľ¨ä»ĸ": 7826,
      "åĬ¨çļĦ": 7827,
      "ãģ¿ãģ«": 7828,
      "line": 7829,
      "æĹĹ": 7830,
      "æĭľæĭľ": 7831,
      "morrow": 7832,
      "éĹª": 7833,
      "ãģ©ãģĨãģŀ": 7834,
      "æĪĳå·²ç»ı": 7835,
      "Ġlose": 7836,
      "è¿Ļä¸¤ä¸ª": 7837,
      "together": 7838,
      "Ġfish": 7839,
      "ãģĵãģĨãģĹãģŁ": 7840,
      "åĪ¶ä½ľ": 7841,
      "Ġmarket": 7842,
      "Ġsomebody": 7843,
      "Ġspoken": 7844,
      "ãģ©ãģĨãģĹãģ¦": 7845,
      "ãģĵãģĵãģ«": 7846,
      "ä¹ĭä¸ĭ": 7847,
      "gra": 7848,
      "å¿ĥæĥħ": 7849,
      "Ġcourage": 7850,
      "å¡ģ": 7851,
      "Ġgolden": 7852,
      "çĶ·åŃĲ": 7853,
      "çİ°è±¡": 7854,
      "æ²¡æľīäºº": 7855,
      "ä¹Łåľ¨": 7856,
      "Ġpassing": 7857,
      "nal": 7858,
      "Ġmembers": 7859,
      "éŁĵ": 7860,
      "Ġamerica": 7861,
      "éĵº": 7862,
      "Ġknowing": 7863,
      "èģª": 7864,
      "Ġpos": 7865,
      "èį·": 7866,
      "éģĭè»¢": 7867,
      "èªŃ": 7868,
      "itution": 7869,
      "Ġcolor": 7870,
      "è¯´æ³ķ": 7871,
      "çĽ¾": 7872,
      "soci": 7873,
      "çĦ¶åĲİåĨį": 7874,
      "ulty": 7875,
      "éĺ»": 7876,
      "ä¸īçĻ¾": 7877,
      "å¥½ä¸įå¥½": 7878,
      "èı©": 7879,
      "Ġfinished": 7880,
      "Ġideas": 7881,
      "ç¶ļãģĳãģ¦": 7882,
      "known": 7883,
      "lli": 7884,
      "pir": 7885,
      "uted": 7886,
      "æī¬": 7887,
      "Ġweight": 7888,
      "ãģĵãĤĵãģ«ãģ¡ãģ¯": 7889,
      "Ġplant": 7890,
      "å®½": 7891,
      "æıĲéĨĴ": 7892,
      "Ġdrawn": 7893,
      "çĶµåı°": 7894,
      "Ġcontrol": 7895,
      "mar": 7896,
      "Ġfill": 7897,
      "ãģĵãģ¨ãģĮãģ§ãģį": 7898,
      "ä¸įçĿĢ": 7899,
      "Ġusually": 7900,
      "äºĴçĽ¸": 7901,
      "Ġfalse": 7902,
      "Ġcheer": 7903,
      "rect": 7904,
      "ãĤĴåıĹãģĳ": 7905,
      "Ġcop": 7906,
      "Ġglory": 7907,
      "äºĶçĻ¾": 7908,
      "fortun": 7909,
      "Ġformed": 7910,
      "å¤ķ": 7911,
      "è®°å¿Ĩ": 7912,
      "Ġusing": 7913,
      "çļĦå£°éŁ³": 7914,
      "ç´§å¼ł": 7915,
      "å¤¸": 7916,
      "ĠU": 7917,
      "Ġtele": 7918,
      "æĽ´æĸ°": 7919,
      "Ġaffect": 7920,
      "ä¸įä¸Ĭ": 7921,
      "åĪĽéĢł": 7922,
      "å¤§éĺª": 7923,
      "Ġfortune": 7924,
      "æİ¥ç¨®": 7925,
      "Ġsixteen": 7926,
      "Ġcommunity": 7927,
      "ãģ®ä¸Ĭ": 7928,
      "ç«¹": 7929,
      "å¯¹äºĨ": 7930,
      "æľīä¸Ģç§į": 7931,
      "å¿ł": 7932,
      "ä¸Ģå¼ł": 7933,
      "Ġpark": 7934,
      "Ġwitness": 7935,
      "eper": 7936,
      "ï½ı": 7937,
      "Ġtelling": 7938,
      "ãģŁãģıãģķãĤĵ": 7939,
      "éĢĴ": 7940,
      "å¯¹åĳĢ": 7941,
      "ä¸Ģåıª": 7942,
      "ç¾İåħĥ": 7943,
      "æĴĴ": 7944,
      "ä»¿": 7945,
      "ãģªãģ®ãģĭ": 7946,
      "çļĦéĤ£äºĽ": 7947,
      "éĤ¦": 7948,
      "è¿ĺåı¯ä»¥": 7949,
      "Ġthin": 7950,
      "Ġwear": 7951,
      "umb": 7952,
      "Ġcentury": 7953,
      "è®Ńç»ĥ": 7954,
      "æĺ¯åĲ¦": 7955,
      "ãģĤãĤĬãģĮãģ¨ãģĨãģĶãģĸãģĦãģ¾ãģĹãģŁ": 7956,
      "Ġtroop": 7957,
      "lip": 7958,
      "ãģłãĤįãģĨ": 7959,
      "åıĳå¸ĥ": 7960,
      "ãĥĭãĥ¥ãĥ¼ãĤ¹": 7961,
      "çĤ®": 7962,
      "Ġaddress": 7963,
      "ç§ĺå¯Ĩ": 7964,
      "Ġkey": 7965,
      "åĽ½å¤ĸ": 7966,
      "é¹¿": 7967,
      "Ġtravel": 7968,
      "æīĶ": 7969,
      "ãģĹãģ¾ãģ£ãģŁ": 7970,
      "ãĥ«ãĤĴ": 7971,
      "Ġmentioned": 7972,
      "éĥ¨å±ĭ": 7973,
      "éĤĢ": 7974,
      "åĽŀæĿ¥äºĨ": 7975,
      "è¯¢": 7976,
      "å¦Ĥæŀľæĺ¯": 7977,
      "osite": 7978,
      "çķ°": 7979,
      "åİ»åİ»": 7980,
      "æĦŁåĪ°": 7981,
      "èº²": 7982,
      "ĠCh": 7983,
      "ãģĦãģĮ": 7984,
      "Ġseventeen": 7985,
      "ees": 7986,
      "hop": 7987,
      "æħ¢æħ¢çļĦ": 7988,
      "Ġanimal": 7989,
      "ä¼ģæ¥Ń": 7990,
      "Ġtit": 7991,
      "Ġsour": 7992,
      "ãģ¯ãģĵãģ®": 7993,
      "çĶŁãģį": 7994,
      "rid": 7995,
      "ãģ»ãģĨãģĮ": 7996,
      "ãģĭãĤīãģŃ": 7997,
      "Ġtong": 7998,
      "ointed": 7999,
      "è·Ŀç¦»": 8000,
      "ague": 8001,
      "ales": 8002,
      "ä»Ģä¹Īä»Ģä¹Ī": 8003,
      "éĥ½å¾Ī": 8004,
      "Ġpage": 8005,
      "ãģĮå¿ħè¦ģ": 8006,
      "ability": 8007,
      "Ġimper": 8008,
      "éļĬ": 8009,
      "ç«ŁçĦ¶": 8010,
      "èĳ£": 8011,
      "èĤ¯å®ļæĺ¯": 8012,
      "Ġexistence": 8013,
      "æ±½è½¦": 8014,
      "Ġsympat": 8015,
      "oid": 8016,
      "phi": 8017,
      "çĵľ": 8018,
      "ãģĦãģŁãģłãģįãģ¾ãģĻ": 8019,
      "æĪĸæĺ¯": 8020,
      "ç°": 8021,
      "å¹´è½»äºº": 8022,
      "âĢ": 8023,
      "Ġheat": 8024,
      "yn": 8025,
      "èĤļ": 8026,
      "å¿ħé¡»è¦ģ": 8027,
      "ãĤīãģļ": 8028,
      "çļĦåĺĽ": 8029,
      "è¿ĺæĺ¯è¦ģ": 8030,
      "ãĥĲãĥĥ": 8031,
      "Ġdust": 8032,
      "çļĦå·¥ä½ľ": 8033,
      "ä¸ĥåįģ": 8034,
      "ãģĦãģ£ãģ±": 8035,
      "æµħ": 8036,
      "åĤ·": 8037,
      "Ġshadow": 8038,
      "æŃ´": 8039,
      "ä¸Ģå®ļæĺ¯": 8040,
      "Ġinj": 8041,
      "èħĲ": 8042,
      "Ġmoving": 8043,
      "å½¢æĪĲ": 8044,
      "æĸ°ãģĹãģĦ": 8045,
      "Ġmodern": 8046,
      "åĭĴ": 8047,
      "è¿Ŀ": 8048,
      "itor": 8049,
      "éķ¿å¾Ĺ": 8050,
      "èģĮä¸ļ": 8051,
      "Ġfashion": 8052,
      "Ġtea": 8053,
      "Ġmountains": 8054,
      "ek": 8055,
      "ille": 8056,
      "iles": 8057,
      "éŃħ": 8058,
      "é¡į": 8059,
      "äºı": 8060,
      "ä½łäºĨ": 8061,
      "éĶĻäºĨ": 8062,
      "Ġconce": 8063,
      "è¿Ļé¦ĸæŃĮ": 8064,
      "ç½ļ": 8065,
      "æĵ¦": 8066,
      "Ġinterv": 8067,
      "Ġtrad": 8068,
      "ç¯Ģ": 8069,
      "Ġhes": 8070,
      "ãģľãģ²": 8071,
      "yet": 8072,
      "Ġsurely": 8073,
      "Ġtot": 8074,
      "Ġninety": 8075,
      "è¡¨æĥħ": 8076,
      "Ġmatters": 8077,
      "Ġfallen": 8078,
      "conom": 8079,
      "Ġservant": 8080,
      "Ġfreed": 8081,
      "zy": 8082,
      "ãģ¾ãģĦ": 8083,
      "åĿĲåľ¨": 8084,
      "ä»ĸéĤ£ä¸ª": 8085,
      "ãģıãģ¦": 8086,
      "ä¸Ģåįĥ": 8087,
      "Ġfaint": 8088,
      "è®¸å¤ļ": 8089,
      "æĪĳæĢİä¹Ī": 8090,
      "Ġheads": 8091,
      "åľ°åħĥ": 8092,
      "Ġrule": 8093,
      "ä»ĸåħ¶å®ŀ": 8094,
      "ä¾¿å®ľ": 8095,
      "èĥİ": 8096,
      "Ġsurface": 8097,
      "èºį": 8098,
      "ãĤĵãģłãģĳãģ©": 8099,
      "ãĤĤãģĤãĤĬãģ¾ãģĻ": 8100,
      "bur": 8101,
      "iction": 8102,
      "çĹħæ¯Ĵ": 8103,
      "Ġanimals": 8104,
      "äºĨä¸ĢäºĽ": 8105,
      "ãģıãģ¨": 8106,
      "ãĥ³ãģĮ": 8107,
      "Ġbirth": 8108,
      "Ġwealth": 8109,
      "å°±æĬĬ": 8110,
      "ingu": 8111,
      "ounced": 8112,
      "åīĳ": 8113,
      "Ġnobody": 8114,
      "ä»ª": 8115,
      "cast": 8116,
      "æ³³": 8117,
      "äºĴèģĶ": 8118,
      "Ġgray": 8119,
      "Ġfier": 8120,
      "åįµ": 8121,
      "åĽŀå¤´": 8122,
      "è£Ĥ": 8123,
      "åıĪæĺ¯": 8124,
      "æµ·éģĵ": 8125,
      "Ġwants": 8126,
      "ï½ħ": 8127,
      "ãĤ®ãĥª": 8128,
      "çĦ¶åĲİæĪĳä»¬": 8129,
      "Ġneeded": 8130,
      "ãĤīãĤĮãģ¾ãģĻ": 8131,
      "ç¨£": 8132,
      "è¿Ļä¸ĢçĤ¹": 8133,
      "Ġedge": 8134,
      "éĢŁåº¦": 8135,
      "Ġnational": 8136,
      "éĹ¨åı£": 8137,
      "äºĪå®ļ": 8138,
      "æįľæŁ»": 8139,
      "Ġimagine": 8140,
      "èŃ¦æĪĴ": 8141,
      "Ġeconom": 8142,
      "port": 8143,
      "å¤§å®¶åı¯ä»¥": 8144,
      "ãģĴãĤĭ": 8145,
      "æĪĳçĽ¸ä¿¡": 8146,
      "è©³": 8147,
      "è£ı": 8148,
      "ãĤ¢ãĥ«": 8149,
      "ãģ¡ãĤĥãģĨ": 8150,
      "äºĴåĬ¨": 8151,
      "æĸ¹ä¾¿": 8152,
      "æļ®ãĤī": 8153,
      "Ġstir": 8154,
      "éĹ®ä½ł": 8155,
      "Ġspite": 8156,
      "åģļä»Ģä¹Ī": 8157,
      "å¦»åŃĲ": 8158,
      "Ġbreast": 8159,
      "Ġcow": 8160,
      "ike": 8161,
      "ï¼¶": 8162,
      "Ġdrawing": 8163,
      "ãĤĪãĤĬãĤĤ": 8164,
      "Ġexer": 8165,
      "å¼ģ": 8166,
      "éĢ»": 8167,
      "æĲľç´¢": 8168,
      "åħŃå¹´": 8169,
      "Ġcrown": 8170,
      "ä¸Ĭä¸Ģ": 8171,
      "ä¸Ńãģ«": 8172,
      "çļĦæĦıæĢĿ": 8173,
      "ï¼ª": 8174,
      "Ġdepend": 8175,
      "ä¸¤åįĥ": 8176,
      "Ġdegree": 8177,
      "çĭĻ": 8178,
      "Ġdifficulty": 8179,
      "èĢ¶ç¨£": 8180,
      "Ġrate": 8181,
      "imate": 8182,
      "Ġtechn": 8183,
      "Ġelect": 8184,
      "åĵªæĢķ": 8185,
      "äº§ä¸ļ": 8186,
      "æµģè¡Į": 8187,
      "ãģ¨ãģĹãģ¦ãģĦãģ¾ãģĻ": 8188,
      "ä½ľä¸ºä¸Ģä¸ª": 8189,
      "Ġtired": 8190,
      "Ġquarter": 8191,
      "Ġain": 8192,
      "å·»": 8193,
      "Ġmillion": 8194,
      "Ġcompletely": 8195,
      "road": 8196,
      "åĳĬè¯īæĪĳ": 8197,
      "Ġofficers": 8198,
      "Ġkingdom": 8199,
      "éĩĮéĿ¢çļĦ": 8200,
      "å¥½åĲĹ": 8201,
      "çĹħéĻ¢": 8202,
      "åĳ¼åĲ¸": 8203,
      "å¤ļãģıãģ®": 8204,
      "Ġburst": 8205,
      "åĲĮå¿Ĺ": 8206,
      "èĩŃ": 8207,
      "æĮĸ": 8208,
      "Ġcapital": 8209,
      "Ġvent": 8210,
      "ç¸Ħ": 8211,
      "Ġfancy": 8212,
      "ãĤĦãģ£ãģŁ": 8213,
      "ä¸įå°ĳ": 8214,
      "æĢĢçĸĳ": 8215,
      "Ġcreature": 8216,
      "Ġweather": 8217,
      "Ġwilliam": 8218,
      "å¥½åĥıæĺ¯": 8219,
      "åħ¨ä¸ĸçķĮ": 8220,
      "Ġhonour": 8221,
      "Ġbare": 8222,
      "Ġaware": 8223,
      "åĥıæĺ¯": 8224,
      "ãģ¤ãģĳ": 8225,
      "åľ°éľĩ": 8226,
      "Ġdrive": 8227,
      "æľĢæĸ°": 8228,
      "rance": 8229,
      "ãĥĺ": 8230,
      "ç¬¬äºĮå¤©": 8231,
      "Ġcarefully": 8232,
      "èĭ¹æŀľ": 8233,
      "Ġjump": 8234,
      "æľīä¸ĢçĤ¹": 8235,
      "éģİãģİ": 8236,
      "Ġmarch": 8237,
      "Ġahead": 8238,
      "ãģ¨ãĤĵ": 8239,
      "Ġangry": 8240,
      "aries": 8241,
      "bre": 8242,
      "ãģ®å¤§": 8243,
      "Ġhosp": 8244,
      "ãģĸãģ¾": 8245,
      "ä»°": 8246,
      "Ġnation": 8247,
      "ãĤ²ãĥ¼ãĥł": 8248,
      "æĪĲæľ¬": 8249,
      "æ¡ĥ": 8250,
      "ä¸ĢçĶŁ": 8251,
      "è¾¼ãĤĵãģ§": 8252,
      "çīµ": 8253,
      "Ġassoci": 8254,
      "çģ¾": 8255,
      "è¾Ľèĭ¦": 8256,
      "Ġgrowing": 8257,
      "culiar": 8258,
      "Ġabsolutely": 8259,
      "æī«": 8260,
      "å°ĨæĿ¥": 8261,
      "æĥ§": 8262,
      "istic": 8263,
      "Ġunf": 8264,
      "Ġsacri": 8265,
      "ç¼©": 8266,
      "åĲĪéĢĤ": 8267,
      "æ¢¦æĥ³": 8268,
      "åĨįè¯´": 8269,
      "Ġsection": 8270,
      "Ġaston": 8271,
      "åįļå£«": 8272,
      "åľ¨ä½ł": 8273,
      "ãģĦãĤįãģĦãĤį": 8274,
      "work": 8275,
      "ãģįãĤĮ": 8276,
      "åħ¥ãĤĮãģ¦": 8277,
      "çĭł": 8278,
      "aked": 8279,
      "Ġamb": 8280,
      "idently": 8281,
      "Ġholding": 8282,
      "Ġsquare": 8283,
      "æĸ°ãģŁãģª": 8284,
      "ov": 8285,
      "æ¢¯": 8286,
      "Ġparents": 8287,
      "ä¹Łä¸įä¼ļ": 8288,
      "å®¢æĪ·": 8289,
      "æĹ¶çļĦ": 8290,
      "åħĲ": 8291,
      "æ¸¬": 8292,
      "ãĥĽãĥ¼ãĥł": 8293,
      "ãĤ«ãĥ¡ãĥ©": 8294,
      "ĨãĤ£": 8295,
      "What": 8296,
      "ä¸ĥå¹´": 8297,
      "Ġofficer": 8298,
      "Ġwelcome": 8299,
      "Ġinstance": 8300,
      "esty": 8301,
      "çļĦåİŁåĽł": 8302,
      "pected": 8303,
      "ç¡®å®ŀæĺ¯": 8304,
      "Ġlat": 8305,
      "Ġstranger": 8306,
      "ik": 8307,
      "Ġcup": 8308,
      "umn": 8309,
      "ãĤ¢ãĤ¦ãĥĪ": 8310,
      "ãĤĴåıĸ": 8311,
      "æĽ¼": 8312,
      "èµĦæºĲ": 8313,
      "aken": 8314,
      "ç½Ĺæĸ¯": 8315,
      "Ġequal": 8316,
      "ãģ£ãģ¦ãģĦãģı": 8317,
      "è²©": 8318,
      "è¿Ł": 8319,
      "ç¶ļãģį": 8320,
      "ãĤ¯ãĥģ": 8321,
      "Ġnames": 8322,
      "two": 8323,
      "ä¸²": 8324,
      "æĪĳåĴĮ": 8325,
      "Ġvast": 8326,
      "Ġseek": 8327,
      "ä½ıå®ħ": 8328,
      "ç²īä¸Ŀ": 8329,
      "æĺ¾ç¤º": 8330,
      "Ġexcell": 8331,
      "end": 8332,
      "æĮĳæĪĺ": 8333,
      "çļĦå¾Ī": 8334,
      "æĢİæł·": 8335,
      "Ġopposite": 8336,
      "Ġwilling": 8337,
      "Ġnoise": 8338,
      "asons": 8339,
      "ãģ£ãģĭ": 8340,
      "å½¢è±¡": 8341,
      "ç»ķ": 8342,
      "Ġspec": 8343,
      "æĹ¶æľŁ": 8344,
      "å½¼æŃ¤": 8345,
      "Ġkit": 8346,
      "oe": 8347,
      "çĶµèĦĳ": 8348,
      "Ġcred": 8349,
      "èģĶåĲĪ": 8350,
      "Ġpeculiar": 8351,
      "Ġcurious": 8352,
      "Ġvers": 8353,
      "åĥķãģ¯": 8354,
      "æĴ®å½±": 8355,
      "Ġaccompan": 8356,
      "Ġrough": 8357,
      "æĬ¬": 8358,
      "rees": 8359,
      "ä¾ł": 8360,
      "Ġhills": 8361,
      "Ġcaused": 8362,
      "ç¢Ĺ": 8363,
      "Ġfate": 8364,
      "çļĩå¸Ŀ": 8365,
      "Ġprogress": 8366,
      "åĿĤ": 8367,
      "å¤ªéĺ³": 8368,
      "ãģĵãģĵãģ¯": 8369,
      "Ġadvent": 8370,
      "Ġignor": 8371,
      "Ġforeign": 8372,
      "æľŁéĹ´": 8373,
      "å¸®ä½ł": 8374,
      "Ġdare": 8375,
      "æľīä¸Ģæ¬¡": 8376,
      "ä¹Ŀå¹´": 8377,
      "ãĤĴéĸĭ": 8378,
      "ç¶ļãģı": 8379,
      "Ġinterested": 8380,
      "ãĤĬè¿Ķ": 8381,
      "å¸®æĪĳ": 8382,
      "Ġwaited": 8383,
      "Ġfingers": 8384,
      "Ġsplend": 8385,
      "iently": 8386,
      "Ġpassage": 8387,
      "Ġthro": 8388,
      "ãĥ©ãĥ³ãĤ¹": 8389,
      "ä¸¤å¹´": 8390,
      "ç¾İçļĦ": 8391,
      "ãģĤãģĻ": 8392,
      "Ġheight": 8393,
      "Ġwalking": 8394,
      "Ġfer": 8395,
      "esh": 8396,
      "Ġsuspic": 8397,
      "è·Łä½łè¯´": 8398,
      "ä¸įåİ»": 8399,
      "æĹ¥æľ¬äºº": 8400,
      "Ġdaily": 8401,
      "ãĤĦãģ¤": 8402,
      "ãĤ¿ãĤ¤ãĥł": 8403,
      "Ġprogram": 8404,
      "Ġauthority": 8405,
      "lin": 8406,
      "æĬķç¥¨": 8407,
      "ãģĹãģ¦ãģĦãģ¾ãģĹãģŁ": 8408,
      "Ġmagn": 8409,
      "åĽ³": 8410,
      "ãĤ¹ãĥŀ": 8411,
      "èĩªä¿¡": 8412,
      "å¹´ãģ«": 8413,
      "å°±è¿Ļæł·": 8414,
      "Ġbag": 8415,
      "ä¸ĸçķĮä¸Ĭ": 8416,
      "ãģĦãģ¯": 8417,
      "Ġperform": 8418,
      "æĹ¥å¸¸": 8419,
      "æĸ½è¨Ń": 8420,
      "ä¼¼çļĦ": 8421,
      "çŁĽ": 8422,
      "æĪĳè¿ĺæĺ¯": 8423,
      "çŃĳ": 8424,
      "å¯¿": 8425,
      "æľºæŀĦ": 8426,
      "æĪĳä»¬è¿Ļä¸ª": 8427,
      "Ġattend": 8428,
      "ä¸įå¦Ĥ": 8429,
      "Ġconduct": 8430,
      "æ·±åĪ»": 8431,
      "Ġjim": 8432,
      "Ġfamiliar": 8433,
      "è®°å½ķ": 8434,
      "Ġmyst": 8435,
      "Ġshoulder": 8436,
      "ä»Ģä¹Īä¸ľè¥¿": 8437,
      "ãģĿãĤĮãģĭãĤī": 8438,
      "may": 8439,
      "å¼ĢæĶ¾": 8440,
      "ãĤĤãģ¡ãĤįãĤĵ": 8441,
      "gl": 8442,
      "åºķä¸ĭ": 8443,
      "ä¸»è¦ģæĺ¯": 8444,
      "Ġcit": 8445,
      "Ġpromised": 8446,
      "Ġregular": 8447,
      "Ġshown": 8448,
      "ãĤģãģ¾ãģĹãģŁ": 8449,
      "èħ¹": 8450,
      "Ġindust": 8451,
      "Ġglance": 8452,
      "Ġcoast": 8453,
      "å¹´çºª": 8454,
      "å°¿": 8455,
      "çºł": 8456,
      "Ġseason": 8457,
      "ç¥Ń": 8458,
      "èĥĥ": 8459,
      "åĪ°ä¸Ģä¸ª": 8460,
      "Ġorders": 8461,
      "Ġalive": 8462,
      "ams": 8463,
      "åŃ¦ä¼ļ": 8464,
      "pel": 8465,
      "éģ¸æīĭãģĮ": 8466,
      "Ġremembered": 8467,
      "èµĦæĸĻ": 8468,
      "ãĤĤãģ®ãģĮ": 8469,
      "éħ·": 8470,
      "ä»įçĦ¶": 8471,
      "åĦĦ": 8472,
      "ä¸ĭåįĪ": 8473,
      "å¨ĥ": 8474,
      "ude": 8475,
      "æĹ©ãģı": 8476,
      "Ġcruel": 8477,
      "Ġpride": 8478,
      "å¤ĸäº¤": 8479,
      "Ġputting": 8480,
      "Ġpieces": 8481,
      "åĨħãģ®": 8482,
      "æ°Ĺãģ«": 8483,
      "æľĢæĹ©": 8484,
      "Ġserve": 8485,
      "Ġeducation": 8486,
      "çļĦæīĭ": 8487,
      "Ġhom": 8488,
      "æĤł": 8489,
      "ä¸įæĸŃçļĦ": 8490,
      "çĶŁæĹ¥": 8491,
      "ä¸Ģåı¥è¯Ŀ": 8492,
      "Ġeleven": 8493,
      "çī¹åĪ«å¥½": 8494,
      "ãĤ¯ãĥŃ": 8495,
      "Ġhearing": 8496,
      "å±Ī": 8497,
      "using": 8498,
      "Ġbeast": 8499,
      "éĻįãĤĬ": 8500,
      "Ġbrave": 8501,
      "Ġadvantage": 8502,
      "åģļåĩº": 8503,
      "å¾ĹäºĨ": 8504,
      "ãĤĮãģ¦ãģĦãģ¾ãģĻ": 8505,
      "å°ĤéĸĢ": 8506,
      "çº·": 8507,
      "ãģ£ãģ¦ãģįãģ¦": 8508,
      "è£¤": 8509,
      "åĢ¾": 8510,
      "éŃļ": 8511,
      "Ġtype": 8512,
      "Ġhurt": 8513,
      "æĢ§æł¼": 8514,
      "è¿Ļæľ¬ä¹¦": 8515,
      "Ġproduced": 8516,
      "åĩºçİ°äºĨ": 8517,
      "ãĤĮãģ¾ãģĽãĤĵ": 8518,
      "åĨįæĿ¥": 8519,
      "åı°é¢¨": 8520,
      "å¯¾å¿ľ": 8521,
      "Ġsurprised": 8522,
      "æ»¡è¶³": 8523,
      "çĶ°ãģķãĤĵ": 8524,
      "çļĦèĢģ": 8525,
      "Ġsides": 8526,
      "Ġpaul": 8527,
      "å¾Īå°ĳ": 8528,
      "Ġhenry": 8529,
      "Ġforgotten": 8530,
      "Ġow": 8531,
      "ators": 8532,
      "åħ³å¿ĥ": 8533,
      "éĢ±éĸĵ": 8534,
      "å¤«å¦»": 8535,
      "Ġblow": 8536,
      "Ġeld": 8537,
      "vox": 8538,
      "Ġprincess": 8539,
      "åĳ¼ãģ³": 8540,
      "ãģĤãģ£ãģ¦": 8541,
      "æĪĳä»¬ä¼ļ": 8542,
      "Ġteacher": 8543,
      "ãģ¨ãģĦãģĨãģ¨ãģĵãĤį": 8544,
      "æ¼«çĶ»": 8545,
      "æ¬£": 8546,
      "key": 8547,
      "Ġforced": 8548,
      "pes": 8549,
      "æ¯ģ": 8550,
      "Ġneeds": 8551,
      "Ġnet": 8552,
      "æī£": 8553,
      "çļĦç¡®": 8554,
      "åĳ³éģĵ": 8555,
      "æĺ¯å¯¹": 8556,
      "åĸľæ¬¢çļĦ": 8557,
      "Ġanxious": 8558,
      "éľ¸": 8559,
      "Ġordered": 8560,
      "ä½©": 8561,
      "æĭ¡": 8562,
      "è¿ĽäºĨ": 8563,
      "çĦ¼ãģį": 8564,
      "ãģ¨ãģªãĤĬãģ¾ãģĹãģŁ": 8565,
      "è¦Ĩ": 8566,
      "åĪ¶éĢł": 8567,
      "æĪĳä¸įæĺ¯": 8568,
      "ception": 8569,
      "Ġdesce": 8570,
      "ãģłãģ¨æĢĿãģĦãģ¾ãģĻ": 8571,
      "ãģĦãģĳãģªãģĦ": 8572,
      "Ġengaged": 8573,
      "æľĪäºĮåįģ": 8574,
      "å°±å°±æĺ¯": 8575,
      "åĮĹæµ·éģĵ": 8576,
      "Ġrespons": 8577,
      "å£®": 8578,
      "Ġprice": 8579,
      "ç¦»å©ļ": 8580,
      "å¤¢": 8581,
      "åĬŀåħ¬": 8582,
      "ç¿»è¯ĳ": 8583,
      "mes": 8584,
      "Ġdar": 8585,
      "ãģĿãĤį": 8586,
      "ãĥ¼ãĥ©": 8587,
      "æĦŁè§īåĪ°": 8588,
      "ä¸įè¶³": 8589,
      "çľĮãģ®": 8590,
      "åĬĿ": 8591,
      "å°Ŀè¯ķ": 8592,
      "è¨´": 8593,
      "å°ıçĻ½": 8594,
      "è¿Ļä¸įæĺ¯": 8595,
      "Ġwoods": 8596,
      "Ġcous": 8597,
      "é©¬æĭī": 8598,
      "stand": 8599,
      "èµ·æĿ¥äºĨ": 8600,
      "éīĦ": 8601,
      "æĪĳåĲ¬": 8602,
      "ĠThe": 8603,
      "Ġnoticed": 8604,
      "ãģªãĤĵãģ¨": 8605,
      "Ġnamed": 8606,
      "Ġtend": 8607,
      "åıĺæĪĲäºĨ": 8608,
      "è²Į": 8609,
      "Ġcro": 8610,
      "Ġearnest": 8611,
      "è¥¿æĸ¹": 8612,
      "Ġswift": 8613,
      "ãģĹãģ¦ãģĦãģı": 8614,
      "åĪ«äººçļĦ": 8615,
      "æī¿è®¤": 8616,
      "Ġwindows": 8617,
      "oke": 8618,
      "ãģĬä¼ĿãģĪ": 8619,
      "æĢİä¹ĪäºĨ": 8620,
      "Ġfinding": 8621,
      "Ġsuffer": 8622,
      "å¼Ģåıĳ": 8623,
      "ãģłãģª": 8624,
      "their": 8625,
      "æĦıè§ģ": 8626,
      "åĬ´": 8627,
      "ãģ£ãģ¦ãģıãĤĭ": 8628,
      "åĸĿéħĴ": 8629,
      "ç³Ł": 8630,
      "Ġproved": 8631,
      "åĨħéĥ¨": 8632,
      "urally": 8633,
      "ãģ®ãĤĪãģĨãģª": 8634,
      "ternal": 8635,
      "èı©èĲ¨": 8636,
      "athered": 8637,
      "æ§½": 8638,
      "æī©": 8639,
      "Ġbreakfast": 8640,
      "Ġpresently": 8641,
      "ãģĮãģĤãģ£ãģ¦": 8642,
      "Ġstars": 8643,
      "Ġstories": 8644,
      "æ°´å¹³": 8645,
      "ãĤ¤ãĥī": 8646,
      "Ġthanks": 8647,
      "ãģ©ãģĨãģĭ": 8648,
      "ãĥĪãĥĥãĥĹ": 8649,
      "è¯Ĭ": 8650,
      "éļĨ": 8651,
      "èĦī": 8652,
      "Ġfeelings": 8653,
      "Ġpriest": 8654,
      "æĺİç¡®": 8655,
      "æĺİãĤī": 8656,
      "è¿ĻäºĽäºº": 8657,
      "nel": 8658,
      "æħĮ": 8659,
      "çĶ·çļĦ": 8660,
      "ä»£ãģ®": 8661,
      "Ġhearts": 8662,
      "Ġobv": 8663,
      "éĩĿ": 8664,
      "Ġplayed": 8665,
      "ä»ĸæ²¡æľī": 8666,
      "Ġcastle": 8667,
      "çĻ»åł´": 8668,
      "Ġlake": 8669,
      "çĬ¹": 8670,
      "ãģ¹ãģį": 8671,
      "Ġalar": 8672,
      "çĽ´åĪ°": 8673,
      "èģ´": 8674,
      "Ġexplain": 8675,
      "è¡¨æ¼Ķ": 8676,
      "æ±ĩ": 8677,
      "ãģĹãģªãģĮãĤī": 8678,
      "ä¸Ģä¸ªä¸Ģä¸ª": 8679,
      "Ġrail": 8680,
      "åĽ½ä¼ļ": 8681,
      "Ġdevil": 8682,
      "çļĦäºĭåĦ¿": 8683,
      "ãĤ´ãĥ¼ãĥ«": 8684,
      "Ġaltogether": 8685,
      "è¿Ļäºĭ": 8686,
      "èĢħãģ¯": 8687,
      "bor": 8688,
      "ä¸Ģåľº": 8689,
      "å¤§ãģįãģı": 8690,
      "ä½ľæ¥Ń": 8691,
      "èıĮ": 8692,
      "ä»ĸä»¬åľ¨": 8693,
      "Ġlegs": 8694,
      "å¿½": 8695,
      "Ġble": 8696,
      "Ġcolonel": 8697,
      "ãĤ·ãĥ¼ãĤº": 8698,
      "Ġpoints": 8699,
      "èİ±": 8700,
      "ä½łå°±æĺ¯": 8701,
      "æĴĳ": 8702,
      "åĵªäºĽ": 8703,
      "åħ¨ãģ¦": 8704,
      "å®ŀéªĮ": 8705,
      "è¿Ļéĥ¨": 8706,
      "ication": 8707,
      "Ġsac": 8708,
      "åĲĥäºĨ": 8709,
      "å¿ĺè®°": 8710,
      "Ġshoulders": 8711,
      "åŃ¦çļĦ": 8712,
      "ãĤ¿ãĤ¤": 8713,
      "ä¸»æĮģ": 8714,
      "uce": 8715,
      "äºĴèģĶç½ĳ": 8716,
      "Ġenergy": 8717,
      "åĨįæ¬¡": 8718,
      "Ġegg": 8719,
      "antic": 8720,
      "hus": 8721,
      "èµ°åĪ°": 8722,
      "å¦¹å¦¹": 8723,
      "å°ĳå¹´": 8724,
      "Ġale": 8725,
      "iding": 8726,
      "å¤§éĻĨ": 8727,
      "æ²¡åĬŀæ³ķ": 8728,
      "æĤ¨çļĦ": 8729,
      "å¤±è´¥": 8730,
      "èħķ": 8731,
      "èĥŀ": 8732,
      "èį¡": 8733,
      "é£İæł¼": 8734,
      "Ġfruit": 8735,
      "éĢ»è¾ĳ": 8736,
      "ç®ĢåįķçļĦ": 8737,
      "Ġaffection": 8738,
      "ãģķãģ¾ãģĸãģ¾": 8739,
      "ä¸įå®¹æĺĵ": 8740,
      "åĲĦä¸ª": 8741,
      "Ġquietly": 8742,
      "å¼¾": 8743,
      "éķ¿æĹ¶éĹ´": 8744,
      "Ġmurm": 8745,
      "Ġforms": 8746,
      "ãģįãģ®ãģĨ": 8747,
      "èĭ±è¯Ń": 8748,
      "æĬĬèĩªå·±": 8749,
      "çĽ£çĿ£": 8750,
      "ãģįãĤĥ": 8751,
      "çİ°ä»£": 8752,
      "çļĦæĹ¶åĢĻåķĬ": 8753,
      "æĺłçĶ»": 8754,
      "å°ĸ": 8755,
      "ãģĦãĤīãģ£ãģĹãĤĥ": 8756,
      "çĶŁæĦı": 8757,
      "ĩãĤ£": 8758,
      "Ġreligious": 8759,
      "Ġflat": 8760,
      "ä»ĩ": 8761,
      "Ġmeasure": 8762,
      "ãģ®ãģĤãĤĭ": 8763,
      "çĹĩçĬ¶": 8764,
      "å¨ľ": 8765,
      "itch": 8766,
      "å¾Īä¹ħ": 8767,
      "ested": 8768,
      "æī¯": 8769,
      "åĩ¯": 8770,
      "æķĻä¼ļ": 8771,
      "tering": 8772,
      "åĪºæ¿Ģ": 8773,
      "Ġbrief": 8774,
      "Ġknock": 8775,
      "ential": 8776,
      "ç²Ĺ": 8777,
      "è¯»ä¹¦": 8778,
      "åĪĽä½ľ": 8779,
      "ä»Ĭåº¦": 8780,
      "Ġordinary": 8781,
      "ä½łåı¯èĥ½": 8782,
      "å§Ĩ": 8783,
      "å¤©ä¸ĭ": 8784,
      "éĤ£åĦ¿": 8785,
      "ãģĺãĤĥãĤĵ": 8786,
      "HE": 8787,
      "æĪĳåĳĬè¯īä½ł": 8788,
      "Ġgets": 8789,
      "åĮĸçļĦ": 8790,
      "ä¸»åĬ¨": 8791,
      "å¹³åĿĩ": 8792,
      "Ġservants": 8793,
      "Ġcam": 8794,
      "åı¯æĢķ": 8795,
      "çĦ¶åĲİå°±æĺ¯": 8796,
      "æķĻãģĪãģ¦": 8797,
      "Ġfaces": 8798,
      "çĶ·åŃ©": 8799,
      "Ġparticularly": 8800,
      "æĪĳä»Ĭå¤©": 8801,
      "ffe": 8802,
      "ãģ¨ãģ¿": 8803,
      "æľĢå¤ļ": 8804,
      "Ġident": 8805,
      "ä»ĺãģĳ": 8806,
      "ç«ŀäºī": 8807,
      "Ġparis": 8808,
      "chen": 8809,
      "Ġaccompl": 8810,
      "è¦ĭãģŁ": 8811,
      "Ġprayer": 8812,
      "åĲĮæĦı": 8813,
      "Ġmighty": 8814,
      "åħ¨ä½ĵ": 8815,
      "Ġprove": 8816,
      "ãģ¨ãģªãģ£ãģŁ": 8817,
      "mas": 8818,
      "æĶ¾éĢģ": 8819,
      "ushing": 8820,
      "è°ĥæķ´": 8821,
      "Ġdise": 8822,
      "è¾£": 8823,
      "Ġempty": 8824,
      "ä¸»äºº": 8825,
      "æĲº": 8826,
      "ented": 8827,
      "izing": 8828,
      "å²¸çĶ°": 8829,
      "Ġbis": 8830,
      "Ġcurrent": 8831,
      "Ġconqu": 8832,
      "As": 8833,
      "ãģ£ãģ¡ãĤĥãģĨ": 8834,
      "æłª": 8835,
      "çĲĨè®º": 8836,
      "ä»ĸè¿ĺ": 8837,
      "çļĦçĬ¶æĢģ": 8838,
      "ãģĬãģĭ": 8839,
      "ä¿Ŀè¯ģ": 8840,
      "æİ¥è¿ĳ": 8841,
      "éĽĨä¸Ń": 8842,
      "Ġaside": 8843,
      "ä»ĸä¸įæĺ¯": 8844,
      "Ġrare": 8845,
      "Ġgas": 8846,
      "ope": 8847,
      "ãĥ³ãĥĲãĥ¼": 8848,
      "ãĤĮãģ¾ãģĹãģŁ": 8849,
      "Ġlam": 8850,
      "Ġopening": 8851,
      "åıĳçĶŁäºĨ": 8852,
      "ãĤīãĤĮãģ¦ãģĦãģ¾ãģĻ": 8853,
      "çĽ¸å½ĵäºİ": 8854,
      "Ġtreas": 8855,
      "Ġbold": 8856,
      "Ġdavid": 8857,
      "Ġdistingu": 8858,
      "ä¹°äºĨ": 8859,
      "Ġyours": 8860,
      "ä¸ĸçºª": 8861,
      "ãģ¾ãģ§ãģ®": 8862,
      "æ²»çĸĹ": 8863,
      "åĲĦç§įåĲĦ": 8864,
      "çĶ¨äºĨ": 8865,
      "çĽĽãĤĬ": 8866,
      "ãģĦãģª": 8867,
      "Ġsex": 8868,
      "æĽ¹": 8869,
      "éĥģ": 8870,
      "åįĬå¹´": 8871,
      "è¿Ļè¿Ļä¸ª": 8872,
      "æŃ£ç¡®": 8873,
      "ulf": 8874,
      "Ġdecl": 8875,
      "Ġdoct": 8876,
      "Ġende": 8877,
      "æĵįä½ľ": 8878,
      "éĥ½å·²ç»ı": 8879,
      "æħ°": 8880,
      "åľ¨ä¸ŃåĽ½": 8881,
      "Ġgentlemen": 8882,
      "Ġevents": 8883,
      "Ġlearning": 8884,
      "Ġstage": 8885,
      "ç§ģãģ®": 8886,
      "Ġspan": 8887,
      "Ġdig": 8888,
      "ä¸¤çĻ¾": 8889,
      "æĪĳåıĪ": 8890,
      "Ġcompanion": 8891,
      "ä¹ĲéĺŁ": 8892,
      "Ġpalace": 8893,
      "ãĤ¹ãĥļ": 8894,
      "é£Łçī©": 8895,
      "Ġing": 8896,
      "ãģ¾ãģĻãģŃ": 8897,
      "Ġpossession": 8898,
      "Ġvide": 8899,
      "Ġfarm": 8900,
      "åı¬": 8901,
      "Ġwid": 8902,
      "åĽŀå¿Ĩ": 8903,
      "åĲ¸å¼ķ": 8904,
      "å°±æĺ¯æľī": 8905,
      "mend": 8906,
      "è·¨": 8907,
      "çĭ±": 8908,
      "Ġstreets": 8909,
      "arked": 8910,
      "åŃ©åŃĲçļĦ": 8911,
      "Ġrequired": 8912,
      "Ġmoral": 8913,
      "Ġrese": 8914,
      "Ġthrown": 8915,
      "åįģåħ«": 8916,
      "æ²ĸç¸Ħ": 8917,
      "ä¸»é¢ĺ": 8918,
      "æīĢä»¥ä½ł": 8919,
      "Ġdwell": 8920,
      "Ġfault": 8921,
      "Ġfully": 8922,
      "çŀ¬éĹ´": 8923,
      "Ġtaste": 8924,
      "è©°": 8925,
      "Ġpowerful": 8926,
      "Ġstorm": 8927,
      "sen": 8928,
      "æµľ": 8929,
      "ï½ĭ": 8930,
      "éĿ©åĳ½": 8931,
      "ç§ģãģĮ": 8932,
      "å¤´åıĳ": 8933,
      "æĪĳä»¬ä»Ĭå¤©": 8934,
      "ãģĺãģ¦": 8935,
      "æŃ£è§£": 8936,
      "ãĥģãĤ§": 8937,
      "æĥħåĨµä¸ĭ": 8938,
      "éĥĳ": 8939,
      "ãģĮãģĤãĤĬ": 8940,
      "çĲĨæĥ³": 8941,
      "Ġroof": 8942,
      "ä¸įåĨį": 8943,
      "ãĥ¡ãĥ¼ãĤ¸": 8944,
      "Ġrising": 8945,
      "Ġliked": 8946,
      "éģ¸æĮĻ": 8947,
      "åŃ¦éĻ¢": 8948,
      "Ġwed": 8949,
      "åľ¨ç¾İåĽ½": 8950,
      "ãģĨãĤĮ": 8951,
      "åĵ²": 8952,
      "aret": 8953,
      "Ġtouched": 8954,
      "åħ¬åı¸çļĦ": 8955,
      "æ¶¦": 8956,
      "ãĥīãĥ©": 8957,
      "äº«åıĹ": 8958,
      "è·Łè¿Ļä¸ª": 8959,
      "æĿĲæĸĻ": 8960,
      "åĲįåīį": 8961,
      "æĿĥåĪ©": 8962,
      "Ġpractice": 8963,
      "icy": 8964,
      "æ¤įçī©": 8965,
      "éģ¿éĽ£": 8966,
      "Ġgreatly": 8967,
      "æĺ¯ä¸Ģç§į": 8968,
      "Ġlistening": 8969,
      "è¸ª": 8970,
      "ä»ģ": 8971,
      "Ġexplained": 8972,
      "ãĥªãĥ³": 8973,
      "Ġfil": 8974,
      "isters": 8975,
      "Ġcoat": 8976,
      "Ġearli": 8977,
      "èĢĮä¸įæĺ¯": 8978,
      "ãĤĴè¶ħ": 8979,
      "ker": 8980,
      "åĴ¬": 8981,
      "ä»ĬåĽŀãģ¯": 8982,
      "é¥¿": 8983,
      "å¤©çļĦ": 8984,
      "Ġkeeping": 8985,
      "èĤ¡ç¥¨": 8986,
      "æĺ¯åı¯ä»¥": 8987,
      "è¿Ļåı¥è¯Ŀ": 8988,
      "Ġindian": 8989,
      "ä¸ĳ": 8990,
      "æĿľ": 8991,
      "èĤº": 8992,
      "ulous": 8993,
      "lect": 8994,
      "Ġexperien": 8995,
      "æķ´ä½ĵ": 8996,
      "æµģãĤĮ": 8997,
      "éĤĢè¯·": 8998,
      "æĪĳèĥ½": 8999,
      "Ġsufficient": 9000,
      "Ġcard": 9001,
      "æŁ±": 9002,
      "Ġgrown": 9003,
      "ä¸ªæľĪ": 9004,
      "çŃĶæ¡Ī": 9005,
      "ãģ©ãĤĮ": 9006,
      "uding": 9007,
      "æĪĲç«ĭ": 9008,
      "è®©ä»ĸä»¬": 9009,
      "éĥŃ": 9010,
      "æģĴ": 9011,
      "ãĤŃãĥ¼": 9012,
      "Ġfond": 9013,
      "ãĥĽãĥ³ãĥĪ": 9014,
      "That": 9015,
      "ppy": 9016,
      "Ġhide": 9017,
      "åīª": 9018,
      "Ġterror": 9019,
      "Ġharm": 9020,
      "hest": 9021,
      "Ġsund": 9022,
      "å½ĵãģŁ": 9023,
      "å¢¨": 9024,
      "Ġsize": 9025,
      "Ġscient": 9026,
      "æĪĳä»¬å®¶": 9027,
      "Ġanybody": 9028,
      "åļ": 9029,
      "Ġsons": 9030,
      "çļĦåĳĢ": 9031,
      "é½¢": 9032,
      "éĤ£ä»ĸ": 9033,
      "åĩĮ": 9034,
      "çµµ": 9035,
      "Ġpair": 9036,
      "åľŁåľ°": 9037,
      "Ġaug": 9038,
      "ublic": 9039,
      "Ġunderstanding": 9040,
      "host": 9041,
      "èĭ±éĽĦ": 9042,
      "æĭĴç»Ŀ": 9043,
      "Ġdistur": 9044,
      "erved": 9045,
      "Ġtaught": 9046,
      "ä¿ĥ": 9047,
      "ese": 9048,
      "éĤ£ä¼ļåĦ¿": 9049,
      "æŀĿ": 9050,
      "mitted": 9051,
      "ãĤ¤ãĤº": 9052,
      "Ġhate": 9053,
      "tho": 9054,
      "ä¼ı": 9055,
      "èª²": 9056,
      "gypt": 9057,
      "æĭ¥æľī": 9058,
      "Ġcommit": 9059,
      "èª¿ãģ¹": 9060,
      "alled": 9061,
      "ensive": 9062,
      "æİĽ": 9063,
      "åħ½": 9064,
      "place": 9065,
      "åĪĨãģĭãĤĬãģ¾ãģĹãģŁ": 9066,
      "ä»İè¿Ļä¸ª": 9067,
      "ission": 9068,
      "Ġfourth": 9069,
      "æĭ¾": 9070,
      "ä¹Łæĺ¯ä¸Ģä¸ª": 9071,
      "åħĶ": 9072,
      "Ġshape": 9073,
      "éĸĵãģ®": 9074,
      "Ġtrade": 9075,
      "Ġstudents": 9076,
      "åĳĺå·¥": 9077,
      "ãĤĴãģĹãģŁ": 9078,
      "ä¸ĩäºº": 9079,
      "ãĤĴç¤º": 9080,
      "Ġdirectly": 9081,
      "Ġjames": 9082,
      "çİ©ç¬ĳ": 9083,
      "å²ģçļĦ": 9084,
      "Ġflesh": 9085,
      "ãģ®å½±éŁ¿": 9086,
      "Ġeveryone": 9087,
      "Ġlies": 9088,
      "çŃĶåºĶ": 9089,
      "Ġpity": 9090,
      "ãģĹãģ¦ãģıãģłãģķãģĦ": 9091,
      "ä½łä»¬çļĦ": 9092,
      "åı¯èĥ½å°±æĺ¯": 9093,
      "çŃīçĿĢ": 9094,
      "Ġlin": 9095,
      "Ġagreed": 9096,
      "ãģ«ãģ¨ãģ£ãģ¦": 9097,
      "é«ĺä¸Ń": 9098,
      "osity": 9099,
      "ç´«": 9100,
      "Ġcy": 9101,
      "ivity": 9102,
      "ç§ģãĤĤ": 9103,
      "ãģĦãģ£ãģ¦": 9104,
      "åħ¶å®ŀåľ¨": 9105,
      "reek": 9106,
      "have": 9107,
      "äº¤æĺĵ": 9108,
      "åħĪæľĪ": 9109,
      "åĳĲ": 9110,
      "ãĥ¡ãĥ¼ãĥĪ": 9111,
      "çļĦä¸į": 9112,
      "åĳ¼ãģ°": 9113,
      "Ġconfidence": 9114,
      "æĪª": 9115,
      "èª¬æĺİ": 9116,
      "ç»ĨèĬĤ": 9117,
      "åĪ¸": 9118,
      "sed": 9119,
      "Ġdeb": 9120,
      "Ġhello": 9121,
      "Ġinha": 9122,
      "Ġsettled": 9123,
      "Ġbent": 9124,
      "æ²¢": 9125,
      "è§Ħå®ļ": 9126,
      "mal": 9127,
      "çŁĽçĽ¾": 9128,
      "åĳ¨åĽ´": 9129,
      "è¯ģæį®": 9130,
      "åİķ": 9131,
      "Ġstat": 9132,
      "ãģķãĤĵãģ§ãģĻ": 9133,
      "Ġfreedom": 9134,
      "Ġspiritual": 9135,
      "å¾Īå¥½çļĦ": 9136,
      "æľīäºĽäºº": 9137,
      "çļĦåĳ¢": 9138,
      "uments": 9139,
      "åħ¶å®ŀæĪĳä»¬": 9140,
      "ç«¶": 9141,
      "Ġsty": 9142,
      "Ġshame": 9143,
      "Ġmurder": 9144,
      "éģİåİ»": 9145,
      "è¯¸": 9146,
      "Ġinterrupt": 9147,
      "èĦĤ": 9148,
      "rer": 9149,
      "èĩªå®ħ": 9150,
      "Ġspect": 9151,
      "liz": 9152,
      "Ġx": 9153,
      "Ġcheck": 9154,
      "Ġskin": 9155,
      "Ġsought": 9156,
      "ä¸ĭãģĮ": 9157,
      "Ġdistinct": 9158,
      "ãĤ°ãĥ©": 9159,
      "Ġpor": 9160,
      "chief": 9161,
      "èģªæĺİ": 9162,
      "ä¹Ķ": 9163,
      "thi": 9164,
      "Ġclearly": 9165,
      "å°±è¢«": 9166,
      "Ġmilitary": 9167,
      "Ġplat": 9168,
      "Ġuns": 9169,
      "ä¸įç®¡æĺ¯": 9170,
      "field": 9171,
      "Ġfailed": 9172,
      "lessly": 9173,
      "thank": 9174,
      "åĳĨ": 9175,
      "å¼Łå¼Ł": 9176,
      "Ġrejo": 9177,
      "ä¸¤ä½į": 9178,
      "Ġmadame": 9179,
      "Ġsym": 9180,
      "éłĥ": 9181,
      "ãģ®ãģ§ãģĹãĤĩãģĨãģĭ": 9182,
      "æĽ´å¥½çļĦ": 9183,
      "has": 9184,
      "èµĦéĩĳ": 9185,
      "çİ²": 9186,
      "Ġlovely": 9187,
      "ãģ¿ãģ¾ãģĻ": 9188,
      "Ġplaying": 9189,
      "ãĤīãĤĮãģªãģĦ": 9190,
      "ä¹ĭä¸Ģ": 9191,
      "ãģķãģ¾ãģĸãģ¾ãģª": 9192,
      "ãĤ³ãĥ³": 9193,
      "Ġjew": 9194,
      "Ġconditions": 9195,
      "Ġtar": 9196,
      "hant": 9197,
      "ä»Ģä¹ĪæĦıæĢĿ": 9198,
      "æĶ¹éĿ©": 9199,
      "ä¼Ļä¼´": 9200,
      "Ġredu": 9201,
      "Ġsaved": 9202,
      "æģ¢": 9203,
      "å°±æĺ¯ä¸Ģ": 9204,
      "çĴ°": 9205,
      "worth": 9206,
      "Ġthrow": 9207,
      "ä¸ĭä¸Ģä¸ª": 9208,
      "ä»ĸçļĦè¿Ļä¸ª": 9209,
      "Ġspend": 9210,
      "Ġpointed": 9211,
      "éģħ": 9212,
      "æĭĶ": 9213,
      "ification": 9214,
      "åľ°ä¸ĭ": 9215,
      "ä»Ĺ": 9216,
      "èĦ¾": 9217,
      "Ġnose": 9218,
      "åį±éĻº": 9219,
      "itated": 9220,
      "Ġjudgment": 9221,
      "åĲ¬åĲ¬": 9222,
      "éĤ£éĩĮ": 9223,
      "Ġotherwise": 9224,
      "æ´ª": 9225,
      "ãĥĸãĥ©": 9226,
      "ãģĵãģ¡ãĤīãģ§ãģĻ": 9227,
      "èĤ¤": 9228,
      "ãģįãĤĩãģĨãģ¯": 9229,
      "éĥ½çŁ¥éģĵ": 9230,
      "è§ģåĪ°": 9231,
      "éĹ®æĪĳ": 9232,
      "ä»ĸåıĪ": 9233,
      "ãģĿãĤĤ": 9234,
      "chant": 9235,
      "èµĶ": 9236,
      "ç´Ļ": 9237,
      "æ³¥": 9238,
      "ãģķãģĽ": 9239,
      "åĪļå¥½": 9240,
      "æĪĸè®¸": 9241,
      "éĤ£æĪĳå°±": 9242,
      "ä¸įè¯´": 9243,
      "Ġlack": 9244,
      "åİ¨": 9245,
      "åģļå¥½": 9246,
      "çĶŁçī©": 9247,
      "æķ²": 9248,
      "ä»ĸä»¬æĺ¯": 9249,
      "leep": 9250,
      "Ġaffairs": 9251,
      "ç±į": 9252,
      "é£ĺ": 9253,
      "ãģ«è¦ĭ": 9254,
      "Ġmessage": 9255,
      "ãĤĴéĢ²": 9256,
      "ä»¶äºĭæĥħ": 9257,
      "ç´ļ": 9258,
      "æľīè¶£": 9259,
      "ãĤĤãĤĵãģŃ": 9260,
      "Ġsaf": 9261,
      "ä»ĬæĹ¥ãģ®": 9262,
      "åŁºéĩĳ": 9263,
      "éĺ¿å§¨": 9264,
      "lor": 9265,
      "ional": 9266,
      "ä¸Ģä¸ªæľĪ": 9267,
      "ãģ¡ãĤĩãģĨ": 9268,
      "å¾·åĽ½": 9269,
      "Ġexcited": 9270,
      "èĥ½éĩı": 9271,
      "Ġasking": 9272,
      "ãģĹãģķ": 9273,
      "Ġliberty": 9274,
      "èĢĢ": 9275,
      "åĪ°è¿ĻéĩĮ": 9276,
      "Ġtax": 9277,
      "ä¸ĵè¾ĳ": 9278,
      "Ġduke": 9279,
      "Ġsolemn": 9280,
      "Ġgrat": 9281,
      "Ġrele": 9282,
      "äººãĤĤ": 9283,
      "è¿ĩåİ»äºĨ": 9284,
      "ãģ¯ãģ©ãģĨ": 9285,
      "è±Ĭ": 9286,
      "ä¸ĵå®¶": 9287,
      "Ġdiscover": 9288,
      "ases": 9289,
      "æ¾³": 9290,
      "ãģ¾ãģ¨": 9291,
      "nat": 9292,
      "æĢĿç»´": 9293,
      "ç¿Ķ": 9294,
      "æĪĳçĪ¸": 9295,
      "æĻºæħ§": 9296,
      "ãģĹãģŁãģ®ãģ¯": 9297,
      "çĻ½ãģĦ": 9298,
      "Ġmyster": 9299,
      "ãĥĥãĤ·ãĥ¥": 9300,
      "å¾ĭå¸Ī": 9301,
      "ä¸įåĩº": 9302,
      "å¡ĳ": 9303,
      "ï¼µ": 9304,
      "è´·": 9305,
      "ãģĮãģ¤": 9306,
      "Ġcitiz": 9307,
      "ãģ«å¯¾ãģĹ": 9308,
      "ãĤ¤ãĤ¯": 9309,
      "è§ģéĿ¢": 9310,
      "æĺ¯ä»Ģä¹Īåĳ¢": 9311,
      "æĺĶ": 9312,
      "Ġflight": 9313,
      "åĨįåİ»": 9314,
      "ãģ¨ãĤĤãģ«": 9315,
      "åĳĪ": 9316,
      "å¥ª": 9317,
      "Ġmaint": 9318,
      "resp": 9319,
      "Ġgathered": 9320,
      "æ²¡åħ³ç³»": 9321,
      "Ġwhispered": 9322,
      "ç¤¼æĭľ": 9323,
      "åĪĨæīĭ": 9324,
      "ich": 9325,
      "è§Ħæ¨¡": 9326,
      "ograp": 9327,
      "Ġbusy": 9328,
      "Ġdrop": 9329,
      "Ġsmoke": 9330,
      "æĹħæ¸¸": 9331,
      "é¤Ĭ": 9332,
      "looking": 9333,
      "åħ¶å®ŀæĪĳè§īå¾Ĺ": 9334,
      "éį": 9335,
      "èµļéĴ±": 9336,
      "æĪĳåħĪ": 9337,
      "çĺ¦": 9338,
      "æŃ¦åĻ¨": 9339,
      "çĶµåŃĲ": 9340,
      "ä¸Ńæĸĩ": 9341,
      "æĽ´å¥½": 9342,
      "Ġdressed": 9343,
      "Ġthorough": 9344,
      "Ġpubl": 9345,
      "ä¸Ģèµ·æĿ¥": 9346,
      "ãģ«ä¹Ĺ": 9347,
      "è¦³åħī": 9348,
      "å¥½åĩł": 9349,
      "ãģĳãģĮ": 9350,
      "Ġmoments": 9351,
      "Ġfavour": 9352,
      "ãģ®ãĥĳ": 9353,
      "play": 9354,
      "Ġendeav": 9355,
      "æľĿé®®": 9356,
      "åħħæ»¡": 9357,
      "ãģĦãģ¦ãģĦãĤĭ": 9358,
      "nes": 9359,
      "terday": 9360,
      "éģł": 9361,
      "æ³ķåĽ½": 9362,
      "ãĥ³å¤§çµ±éłĺ": 9363,
      "Ġcalling": 9364,
      "åĿĳ": 9365,
      "åĲİçļĦ": 9366,
      "Ġships": 9367,
      "Ġlod": 9368,
      "Ġtwice": 9369,
      "æĤ£èĢħ": 9370,
      "çį²": 9371,
      "æ¡Īä»¶": 9372,
      "ç»Ļèĩªå·±": 9373,
      "Ġinvent": 9374,
      "Ġwicked": 9375,
      "ãĤĵãģ§ãģĹãĤĩãģĨãģĭ": 9376,
      "åĽ½éļĽ": 9377,
      "ãģĩ": 9378,
      "çī¹åĪ«æĺ¯": 9379,
      "Ġder": 9380,
      "Ġrefused": 9381,
      "Ġtongue": 9382,
      "å¹´ãģ¶": 9383,
      "å°±è¿Ļä¹Ī": 9384,
      "ä¸įçĦ¶": 9385,
      "æĺ¼": 9386,
      "Ġleading": 9387,
      "ä½Ĩæĺ¯æĪĳè§īå¾Ĺ": 9388,
      "å°Ĭéĩį": 9389,
      "æµ©": 9390,
      "éĶĻè¯¯": 9391,
      "éħĴåºĹ": 9392,
      "Ġgather": 9393,
      "åħ±åĴĮ": 9394,
      "å¢ĹãģĪãģ¦": 9395,
      "Ġpowers": 9396,
      "Ġintended": 9397,
      "On": 9398,
      "ãĥ¼ãĤ¿": 9399,
      "ç²®": 9400,
      "Ġfed": 9401,
      "ä¸Ģéģį": 9402,
      "ãĥ¦": 9403,
      "Ġassem": 9404,
      "Ġdick": 9405,
      "å®ĹæķĻ": 9406,
      "Ġcollege": 9407,
      "æ¶Īå¤±": 9408,
      "Ġintellect": 9409,
      "Ġconne": 9410,
      "å¿ĥä¸Ń": 9411,
      "å¾Īéĩįè¦ģ": 9412,
      "Ġcabin": 9413,
      "ï½ī": 9414,
      "ä¹ĭéĹ´çļĦ": 9415,
      "Ġdouble": 9416,
      "Ġdign": 9417,
      "éģĬ": 9418,
      "Ġobliged": 9419,
      "vert": 9420,
      "Ġpopular": 9421,
      "ä¼ļåľ¨": 9422,
      "Ġpictures": 9423,
[...]
